node {
  name: "global_step/Initializer/zeros"
  op: "Const"
  attr {
    key: "_class"
    value {
      list {
        s: "loc:@global_step"
      }
    }
  }
  attr {
    key: "_output_shapes"
    value {
      list {
        shape {
        }
      }
    }
  }
  attr {
    key: "dtype"
    value {
      type: DT_INT64
    }
  }
  attr {
    key: "value"
    value {
      tensor {
        dtype: DT_INT64
        tensor_shape {
        }
        int64_val: 0
      }
    }
  }
}
node {
  name: "global_step"
  op: "VarHandleOp"
  attr {
    key: "_class"
    value {
      list {
        s: "loc:@global_step"
      }
    }
  }
  attr {
    key: "_output_shapes"
    value {
      list {
        shape {
        }
      }
    }
  }
  attr {
    key: "allowed_devices"
    value {
      list {
      }
    }
  }
  attr {
    key: "container"
    value {
      s: ""
    }
  }
  attr {
    key: "dtype"
    value {
      type: DT_INT64
    }
  }
  attr {
    key: "shape"
    value {
      shape {
      }
    }
  }
  attr {
    key: "shared_name"
    value {
      s: "global_step"
    }
  }
}
node {
  name: "global_step/IsInitialized/VarIsInitializedOp"
  op: "VarIsInitializedOp"
  input: "global_step"
  attr {
    key: "_output_shapes"
    value {
      list {
        shape {
        }
      }
    }
  }
}
node {
  name: "global_step/Assign"
  op: "AssignVariableOp"
  input: "global_step"
  input: "global_step/Initializer/zeros"
  attr {
    key: "dtype"
    value {
      type: DT_INT64
    }
  }
  attr {
    key: "validate_shape"
    value {
      b: false
    }
  }
}
node {
  name: "global_step/Read/ReadVariableOp"
  op: "ReadVariableOp"
  input: "global_step"
  attr {
    key: "_output_shapes"
    value {
      list {
        shape {
        }
      }
    }
  }
  attr {
    key: "dtype"
    value {
      type: DT_INT64
    }
  }
}
node {
  name: "global_step/VarIsInitializedOp"
  op: "VarIsInitializedOp"
  input: "global_step"
  attr {
    key: "_output_shapes"
    value {
      list {
        shape {
        }
      }
    }
  }
}
node {
  name: "global_step/cond"
  op: "If"
  input: "global_step/VarIsInitializedOp"
  input: "global_step"
  input: "global_step/Initializer/zeros"
  attr {
    key: "Tcond"
    value {
      type: DT_BOOL
    }
  }
  attr {
    key: "Tin"
    value {
      list {
        type: DT_RESOURCE
        type: DT_INT64
      }
    }
  }
  attr {
    key: "Tout"
    value {
      list {
        type: DT_INT64
      }
    }
  }
  attr {
    key: "_lower_using_switch_merge"
    value {
      b: true
    }
  }
  attr {
    key: "_output_shapes"
    value {
      list {
        shape {
        }
      }
    }
  }
  attr {
    key: "_read_only_resource_inputs"
    value {
      list {
        i: 1
      }
    }
  }
  attr {
    key: "else_branch"
    value {
      func {
        name: "global_step_cond_false_8"
      }
    }
  }
  attr {
    key: "output_shapes"
    value {
      list {
        shape {
        }
      }
    }
  }
  attr {
    key: "then_branch"
    value {
      func {
        name: "global_step_cond_true_7"
      }
    }
  }
}
node {
  name: "global_step/cond/Identity"
  op: "Identity"
  input: "global_step/cond"
  attr {
    key: "T"
    value {
      type: DT_INT64
    }
  }
  attr {
    key: "_output_shapes"
    value {
      list {
        shape {
        }
      }
    }
  }
}
node {
  name: "global_step/add/y"
  op: "Const"
  attr {
    key: "_output_shapes"
    value {
      list {
        shape {
        }
      }
    }
  }
  attr {
    key: "dtype"
    value {
      type: DT_INT64
    }
  }
  attr {
    key: "value"
    value {
      tensor {
        dtype: DT_INT64
        tensor_shape {
        }
        int64_val: 0
      }
    }
  }
}
node {
  name: "global_step/add"
  op: "AddV2"
  input: "global_step/cond/Identity"
  input: "global_step/add/y"
  attr {
    key: "T"
    value {
      type: DT_INT64
    }
  }
  attr {
    key: "_output_shapes"
    value {
      list {
        shape {
        }
      }
    }
  }
}
node {
  name: "normalize_element/component_0"
  op: "Const"
  device: "/device:CPU:0"
  attr {
    key: "_output_shapes"
    value {
      list {
        shape {
          dim {
            size: 879
          }
        }
      }
    }
  }
  attr {
    key: "dtype"
    value {
      type: DT_DOUBLE
    }
  }
  attr {
    key: "value"
    value {
      tensor {
        dtype: DT_DOUBLE
        tensor_shape {
          dim {
            size: 879
          }
        }
        tensor_content: "\351\242\213.\272\350\322?/\272\350\242\213.\342?F\027]t\321E\327?/\272\350\242\213.\332?t\321E\027]t\321?\243\213.\272\350\242\333?F\027]t\321E\307?/\272\350\242\213.\312?]t\321E\027]\304?\000\000\000\000\000\000\340?\030]t\321E\027\315?\272\350\242\213.\272\330?/\272\350\242\213.\342?t\321E\027]t\321?/\272\350\242\213.\342?t\321E\027]t\321?/\272\350\242\213.\312?\214.\272\350\242\213\336?\030]t\321E\027\315?\322E\027]t\321\325?]t\321E\027]\324?]t\321E\027]\324?F\027]t\321E\247?]t\321E\027]\324?/\272\350\242\213.\332?\030]t\321E\027\275?t\321E\027]t\301?F\027]t\321E\227?\243\213.\272\350\242\333?F\027]t\321E\307?\030]t\321E\027\335?\000\000\000\000\000\000\320?]t\321E\027]\324?\214.\272\350\242\213\336?]t\321E\027]\304?F\027]t\321E\307?\322E\027]t\321\325?/\272\350\242\213.\312?/\272\350\242\213.\332?t\321E\027]t\321?]t\321E\027]\324?\000\000\000\000\000\000\320?t\321E\027]t\321?t\321E\027]t\341?t\321E\027]t\301?/\272\350\242\213.\312?\322E\027]t\321\325?t\321E\027]t\321?F\027]t\321E\327?\272\350\242\213.\272\330?\000\000\000\000\000\000\350?\000\000\000\000\000\000\320?/\272\350\242\213.\342?]t\321E\027]\324?/\272\350\242\213.\312?\351\242\213.\272\350\342?\000\000\000\000\000\000\350?\351\242\213.\272\350\322?]t\321E\027]\324?t\321E\027]t\301?t\321E\027]t\321?]t\321E\027]\324?/\272\350\242\213.\312?t\321E\027]t\321?\030]t\321E\027\335?\030]t\321E\027\315?t\321E\027]t\321?/\272\350\242\213.\342?]t\321E\027]\324?\000\000\000\000\000\000\320?F\027]t\321E\307?]t\321E\027]\344?F\027]t\321E\327?]t\321E\027]\304?\030]t\321E\027\275?/\272\350\242\213.\312?\000\000\000\000\000\000\320?\322E\027]t\321\325?\030]t\321E\027\315?\000\000\000\000\000\000\320?\272\350\242\213.\272\330?\243\213.\272\350\242\333?\030]t\321E\027\275?\030]t\321E\027\275?\000\000\000\000\000\000\320?\000\000\000\000\000\000\320?\000\000\000\000\000\000\320?F\027]t\321E\327?F\027]t\321E\307?t\321E\027]t\261?/\272\350\242\213.\332?\030]t\321E\027\315?\030]t\321E\027\335?\030]t\321E\027\275?\351\242\213.\272\350\322?\030]t\321E\027\335?\243\213.\272\350\242\333?]t\321E\027]\344?F\027]t\321E\307?F\027]t\321E\267?/\272\350\242\213.\332?\000\000\000\000\000\000\320?t\321E\027]t\301?\000\000\000\000\000\000\320?\351\242\213.\272\350\342?\272\350\242\213.\272\330?F\027]t\321E\327?t\321E\027]t\321?\272\350\242\213.\272\330?F\027]t\321E\307?]t\321E\027]\324?\351\242\213.\272\350\322?t\321E\027]t\301?t\321E\027]t\321?/\272\350\242\213.\312?\351\242\213.\272\350\322?\272\350\242\213.\272\330?\030]t\321E\027\335?]t\321E\027]\324?\272\350\242\213.\272\330?\030]t\321E\027\315?/\272\350\242\213.\342?F\027]t\321E\327?F\027]t\321E\327?\243\213.\272\350\242\333?F\027]t\321E\327?\243\213.\272\350\242\343?/\272\350\242\213.\312?/\272\350\242\213.\332?]t\321E\027]\324?]t\321E\027]\324?\322E\027]t\321\345?t\321E\027]t\301?\272\350\242\213.\272\330?F\027]t\321E\227?\322E\027]t\321\325?\351\242\213.\272\350\322?/\272\350\242\213.\312?/\272\350\242\213.\342?\030]t\321E\027\315?\351\242\213.\272\350\322?\030]t\321E\027\275?\351\242\213.\272\350\322?t\321E\027]t\321?\000\000\000\000\000\000\320?\030]t\321E\027\335?/\272\350\242\213.\342?\351\242\213.\272\350\322?\351\242\213.\272\350\322?/\272\350\242\213.\312?t\321E\027]t\261?\030]t\321E\027\315?]t\321E\027]\304?\243\213.\272\350\242\333?\030]t\321E\027\315?F\027]t\321E\307?\214.\272\350\242\213\346?]t\321E\027]\324?F\027]t\321E\327?/\272\350\242\213.\312?\272\350\242\213.\272\330?]t\321E\027]\304?F\027]t\321E\307?]t\321E\027]\324?\030]t\321E\027\275?\322E\027]t\321\325?F\027]t\321E\227?t\321E\027]t\261?\351\242\213.\272\350\322?]t\321E\027]\304?F\027]t\321E\307?]t\321E\027]\304?t\321E\027]t\321?\272\350\242\213.\272\330?\272\350\242\213.\272\340?F\027]t\321E\347?\030]t\321E\027\335?\030]t\321E\027\275?\000\000\000\000\000\000\000\000F\027]t\321E\267?\272\350\242\213.\272\330?]t\321E\027]\324?\322E\027]t\321\345?\272\350\242\213.\272\330?\000\000\000\000\000\000\320?\322E\027]t\321\325?F\027]t\321E\267?\351\242\213.\272\350\322?\272\350\242\213.\272\340?\000\000\000\000\000\000\320?]t\321E\027]\304?\351\242\213.\272\350\322?F\027]t\321E\267?\351\242\213.\272\350\342?\272\350\242\213.\272\340?]t\321E\027]\324?\030]t\321E\027\315?\027]t\321E\027\345?\000\000\000\000\000\000\340?\322E\027]t\321\325?t\321E\027]t\321?\351\242\213.\272\350\322?\030]t\321E\027\275?F\027]t\321E\307?F\027]t\321E\327?t\321E\027]t\341?F\027]t\321E\307?F\027]t\321E\327?t\321E\027]t\341?\272\350\242\213.\272\330?\351\242\213.\272\350\322?\351\242\213.\272\350\322?\272\350\242\213.\272\340?/\272\350\242\213.\352?t\321E\027]t\301?\243\213.\272\350\242\333?\322E\027]t\321\325?\322E\027]t\321\325?\322E\027]t\321\325?/\272\350\242\213.\342?/\272\350\242\213.\312?t\321E\027]t\301?F\027]t\321E\307?\030]t\321E\027\275?t\321E\027]t\341?t\321E\027]t\301?t\321E\027]t\301?/\272\350\242\213.\342?/\272\350\242\213.\312?\214.\272\350\242\213\336?F\027]t\321E\327?/\272\350\242\213.\312?\322E\027]t\321\325?F\027]t\321E\307?F\027]t\321E\247?t\321E\027]t\301?t\321E\027]t\261?]t\321E\027]\324?]t\321E\027]\304?F\027]t\321E\307?\272\350\242\213.\272\330?/\272\350\242\213.\332?\351\242\213.\272\350\322?\030]t\321E\027\275?\000\000\000\000\000\000\340?t\321E\027]t\301?\030]t\321E\027\335?t\321E\027]t\321?/\272\350\242\213.\332?/\272\350\242\213.\342?\030]t\321E\027\335?/\272\350\242\213.\332?F\027]t\321E\307?\000\000\000\000\000\000\320?/\272\350\242\213.\332?\030]t\321E\027\315?t\321E\027]t\261?\030]t\321E\027\315?\000\000\000\000\000\000\320?]t\321E\027]\324?]t\321E\027]\304?]t\321E\027]\304?\030]t\321E\027\315?]t\321E\027]\304?\000\000\000\000\000\000\320?F\027]t\321E\307?]t\321E\027]\324?/\272\350\242\213.\342?\000\000\000\000\000\000\320?]t\321E\027]\324?]t\321E\027]\304?\030]t\321E\027\275?F\027]t\321E\307?\000\000\000\000\000\000\340?\000\000\000\000\000\000\340?F\027]t\321E\307?]t\321E\027]\344?\030]t\321E\027\335?\351\242\213.\272\350\342?\030]t\321E\027\315?]t\321E\027]\324?]t\321E\027]\324?\030]t\321E\027\275?\322E\027]t\321\345?\322E\027]t\321\325?/\272\350\242\213.\312?\272\350\242\213.\272\330?\030]t\321E\027\275?]t\321E\027]\324?F\027]t\321E\307?]t\321E\027]\304?\351\242\213.\272\350\322?/\272\350\242\213.\342?]t\321E\027]\304?\030]t\321E\027\275?]t\321E\027]\304?\000\000\000\000\000\000\340?/\272\350\242\213.\312?]t\321E\027]\324?\030]t\321E\027\275?]t\321E\027]\324?F\027]t\321E\227?\322E\027]t\321\325?]t\321E\027]\324?F\027]t\321E\307?\000\000\000\000\000\000\320?/\272\350\242\213.\312?F\027]t\321E\327?F\027]t\321E\247?\000\000\000\000\000\000\320?\351\242\213.\272\350\322?\000\000\000\000\000\000\320?\243\213.\272\350\242\333?\030]t\321E\027\335?F\027]t\321E\307?\030]t\321E\027\275?\000\000\000\000\000\000\320?/\272\350\242\213.\312?]t\321E\027]\304?\351\242\213.\272\350\322?\000\000\000\000\000\000\320?/\272\350\242\213.\312?/\272\350\242\213.\312?\030]t\321E\027\275?\272\350\242\213.\272\330?\243\213.\272\350\242\333?]t\321E\027]\324?t\321E\027]t\321?F\027]t\321E\347?\243\213.\272\350\242\343?F\027]t\321E\327?t\321E\027]t\321?F\027]t\321E\307?\030]t\321E\027\315?\030]t\321E\027\315?\000\000\000\000\000\000\320?\030]t\321E\027\315?\030]t\321E\027\335?F\027]t\321E\327?\000\000\000\000\000\000\340?F\027]t\321E\327?/\272\350\242\213.\312?t\321E\027]t\321?]t\321E\027]\304?\000\000\000\000\000\000\350?\272\350\242\213.\272\330?\000\000\000\000\000\000\340?\030]t\321E\027\275?\322E\027]t\321\325?\000\000\000\000\000\000\320?\030]t\321E\027\275?t\321E\027]t\301?/\272\350\242\213.\332?\000\000\000\000\000\000\320?\351\242\213.\272\350\342?F\027]t\321E\327?]t\321E\027]\304?\322E\027]t\321\325?\322E\027]t\321\325?]t\321E\027]\304?\000\000\000\000\000\000\320?\000\000\000\000\000\000\320?]t\321E\027]\344?t\321E\027]t\261?/\272\350\242\213.\312?\000\000\000\000\000\000\320?\000\000\000\000\000\000\340?t\321E\027]t\261?t\321E\027]t\301?\030]t\321E\027\315?F\027]t\321E\307?]t\321E\027]\324?\351\242\213.\272\350\322?]t\321E\027]\304?]t\321E\027]\344?\243\213.\272\350\242\333?F\027]t\321E\267?\243\213.\272\350\242\343?\243\213.\272\350\242\333?\000\000\000\000\000\000\320?F\027]t\321E\307?/\272\350\242\213.\332?\030]t\321E\027\315?\243\213.\272\350\242\333?\030]t\321E\027\335?/\272\350\242\213.\332?/\272\350\242\213.\312?t\321E\027]t\321?\030]t\321E\027\275?\030]t\321E\027\275?\030]t\321E\027\275?\322E\027]t\321\325?\030]t\321E\027\315?]t\321E\027]\304?\000\000\000\000\000\000\320?\030]t\321E\027\315?t\321E\027]t\301?t\321E\027]t\321?\030]t\321E\027\315?/\272\350\242\213.\312?F\027]t\321E\327?\322E\027]t\321\325?]t\321E\027]\324?]t\321E\027]\304?\000\000\000\000\000\000\320?t\321E\027]t\301?\243\213.\272\350\242\333?F\027]t\321E\267?\000\000\000\000\000\000\320?\351\242\213.\272\350\322?/\272\350\242\213.\312?\000\000\000\000\000\000\320?F\027]t\321E\327?\030]t\321E\027\315?u\321E\027]t\351?\322E\027]t\321\325?\030]t\321E\027\335?\030]t\321E\027\315?\322E\027]t\321\325?]t\321E\027]\304?]t\321E\027]\304?\000\000\000\000\000\000\340?t\321E\027]t\301?\243\213.\272\350\242\353?]t\321E\027]\324?]t\321E\027]\324?\214.\272\350\242\213\336?t\321E\027]t\261?\351\242\213.\272\350\322?/\272\350\242\213.\312?t\321E\027]t\341?F\027]t\321E\307?\272\350\242\213.\272\330?\243\213.\272\350\242\333?t\321E\027]t\301?\030]t\321E\027\315?]t\321E\027]\324?/\272\350\242\213.\342?\322E\027]t\321\325?\322E\027]t\321\325?\030]t\321E\027\275?\351\242\213.\272\350\322?\322E\027]t\321\325?]t\321E\027]\324?\351\242\213.\272\350\322?t\321E\027]t\301?\351\242\213.\272\350\322?\243\213.\272\350\242\343?\351\242\213.\272\350\322?\351\242\213.\272\350\322?\214.\272\350\242\213\336?\243\213.\272\350\242\343?t\321E\027]t\301?\272\350\242\213.\272\330?t\321E\027]t\301?\243\213.\272\350\242\353?t\321E\027]t\301?]t\321E\027]\324?t\321E\027]t\261?t\321E\027]t\341?\000\000\000\000\000\000\320?/\272\350\242\213.\352?/\272\350\242\213.\312?t\321E\027]t\321?/\272\350\242\213.\312?]t\321E\027]\324?/\272\350\242\213.\312?F\027]t\321E\307?\000\000\000\000\000\000\320?\322E\027]t\321\325?F\027]t\321E\327?\214.\272\350\242\213\336?\243\213.\272\350\242\343?t\321E\027]t\301?F\027]t\321E\307?/\272\350\242\213.\312?\322E\027]t\321\325?\000\000\000\000\000\000\320?/\272\350\242\213.\312?]t\321E\027]\304?t\321E\027]t\321?t\321E\027]t\321?/\272\350\242\213.\312?\030]t\321E\027\275?]t\321E\027]\324?\214.\272\350\242\213\336?F\027]t\321E\327?\214.\272\350\242\213\336?]t\321E\027]\324?\351\242\213.\272\350\322?\351\242\213.\272\350\352?\351\242\213.\272\350\322?\272\350\242\213.\272\340?\243\213.\272\350\242\333?\351\242\213.\272\350\322?\322E\027]t\321\325?\030]t\321E\027\275?F\027]t\321E\327?F\027]t\321E\307?\243\213.\272\350\242\333?/\272\350\242\213.\332?\214.\272\350\242\213\336?]t\321E\027]\324?/\272\350\242\213.\332?F\027]t\321E\307?\243\213.\272\350\242\333?\272\350\242\213.\272\330?F\027]t\321E\267?\000\000\000\000\000\000\340?F\027]t\321E\327?/\272\350\242\213.\312?]t\321E\027]\324?F\027]t\321E\307?/\272\350\242\213.\312?\214.\272\350\242\213\336?F\027]t\321E\307?\351\242\213.\272\350\342?\030]t\321E\027\335?\030]t\321E\027\335?]t\321E\027]\324?/\272\350\242\213.\342?/\272\350\242\213.\332?\272\350\242\213.\272\330?\272\350\242\213.\272\330?\322E\027]t\321\325?t\321E\027]t\301?\000\000\000\000\000\000\340?F\027]t\321E\307?\243\213.\272\350\242\343?]t\321E\027]\304?/\272\350\242\213.\342?t\321E\027]t\301?\322E\027]t\321\325?\030]t\321E\027\275?F\027]t\321E\307?t\321E\027]t\341?\030]t\321E\027\275?F\027]t\321E\307?/\272\350\242\213.\332?F\027]t\321E\267?t\321E\027]t\321?\322E\027]t\321\325?\243\213.\272\350\242\333?\000\000\000\000\000\000\320?]t\321E\027]\324?\351\242\213.\272\350\322?t\321E\027]t\321?\243\213.\272\350\242\333?]t\321E\027]\304?t\321E\027]t\341?\322E\027]t\321\325?F\027]t\321E\327?F\027]t\321E\247?F\027]t\321E\247?F\027]t\321E\307?/\272\350\242\213.\332?/\272\350\242\213.\332?\030]t\321E\027\335?]t\321E\027]\324?\214.\272\350\242\213\336?\030]t\321E\027\335?\272\350\242\213.\272\330?\272\350\242\213.\272\340?]t\321E\027]\344?\000\000\000\000\000\000\340?/\272\350\242\213.\312?\000\000\000\000\000\000\000\000\000\000\000\000\000\000\340?F\027]t\321E\267?\000\000\000\000\000\000\340?\351\242\213.\272\350\322?\030]t\321E\027\335?/\272\350\242\213.\312?F\027]t\321E\307?\000\000\000\000\000\000\340?\030]t\321E\027\315?t\321E\027]t\321?\030]t\321E\027\335?F\027]t\321E\327?F\027]t\321E\307?t\321E\027]t\321?\030]t\321E\027\275?t\321E\027]t\341?F\027]t\321E\327?t\321E\027]t\261?\351\242\213.\272\350\322?F\027]t\321E\327?]t\321E\027]\304?\351\242\213.\272\350\322?]t\321E\027]\324?t\321E\027]t\301?\000\000\000\000\000\000\320?/\272\350\242\213.\312?/\272\350\242\213.\342?\000\000\000\000\000\000\320?\351\242\213.\272\350\322?\000\000\000\000\000\000\320?t\321E\027]t\301?\272\350\242\213.\272\330?\000\000\000\000\000\000\320?\272\350\242\213.\272\340?\272\350\242\213.\272\340?/\272\350\242\213.\332?\214.\272\350\242\213\336?/\272\350\242\213.\332?/\272\350\242\213.\312?\030]t\321E\027\275?/\272\350\242\213.\332?F\027]t\321E\267?\322E\027]t\321\325?]t\321E\027]\324?]t\321E\027]\304?]t\321E\027]\324?\322E\027]t\321\355?F\027]t\321E\307?]t\321E\027]\304?\351\242\213.\272\350\322?\030]t\321E\027\315?]t\321E\027]\324?\214.\272\350\242\213\336?F\027]t\321E\347?\322E\027]t\321\325?\272\350\242\213.\272\330?\030]t\321E\027\275?\243\213.\272\350\242\333?F\027]t\321E\327?\322E\027]t\321\325?\351\242\213.\272\350\322?\272\350\242\213.\272\330?\030]t\321E\027\315?\272\350\242\213.\272\330?F\027]t\321E\307?\322E\027]t\321\325?\030]t\321E\027\315?\030]t\321E\027\275?u\321E\027]t\351?t\321E\027]t\301?]t\321E\027]\324?F\027]t\321E\307?]t\321E\027]\324?\000\000\000\000\000\000\000\000\272\350\242\213.\272\340?F\027]t\321E\327?/\272\350\242\213.\312?\000\000\000\000\000\000\000\000]t\321E\027]\324?\000\000\000\000\000\000\320?]t\321E\027]\304?F\027]t\321E\327?\214.\272\350\242\213\336?F\027]t\321E\327?\214.\272\350\242\213\336?\272\350\242\213.\272\340?F\027]t\321E\327?\243\213.\272\350\242\333?F\027]t\321E\327?\030]t\321E\027\335?F\027]t\321E\267?\272\350\242\213.\272\330?\322E\027]t\321\325?t\321E\027]t\301?t\321E\027]t\321?\027]t\321E\027\345?\351\242\213.\272\350\342?\030]t\321E\027\315?]t\321E\027]\324?\030]t\321E\027\275?\243\213.\272\350\242\333?F\027]t\321E\307?F\027]t\321E\227?\272\350\242\213.\272\330?\030]t\321E\027\315?\000\000\000\000\000\000\340?F\027]t\321E\307?t\321E\027]t\321?\000\000\000\000\000\000\320?/\272\350\242\213.\312?\030]t\321E\027\335?\243\213.\272\350\242\333?t\321E\027]t\341?\351\242\213.\272\350\322?F\027]t\321E\327?\322E\027]t\321\325?\030]t\321E\027\315?t\321E\027]t\301?t\321E\027]t\321?\351\242\213.\272\350\322?\243\213.\272\350\242\333?F\027]t\321E\267?\030]t\321E\027\355?\030]t\321E\027\335?/\272\350\242\213.\332?/\272\350\242\213.\332?\000\000\000\000\000\000\340?\030]t\321E\027\275?\272\350\242\213.\272\330?F\027]t\321E\307?\030]t\321E\027\315?\030]t\321E\027\275?F\027]t\321E\307?F\027]t\321E\307?]t\321E\027]\304?\351\242\213.\272\350\322?t\321E\027]t\321?\322E\027]t\321\325?]t\321E\027]\324?\030]t\321E\027\315?t\321E\027]t\321?\214.\272\350\242\213\336?F\027]t\321E\307?/\272\350\242\213.\332?\322E\027]t\321\325?t\321E\027]t\321?\272\350\242\213.\272\330?\322E\027]t\321\325?\030]t\321E\027\315?F\027]t\321E\327?]t\321E\027]\324?t\321E\027]t\321?\030]t\321E\027\335?\272\350\242\213.\272\330?\000\000\000\000\000\000\320?\272\350\242\213.\272\340?\000\000\000\000\000\000\000\000t\321E\027]t\341?]t\321E\027]\304?F\027]t\321E\307?]t\321E\027]\304?F\027]t\321E\307?\351\242\213.\272\350\322?t\321E\027]t\321?\272\350\242\213.\272\330?\000\000\000\000\000\000\320?\000\000\000\000\000\000\320?\243\213.\272\350\242\333?\272\350\242\213.\272\330?\214.\272\350\242\213\336?/\272\350\242\213.\342?t\321E\027]t\321?F\027]t\321E\267?F\027]t\321E\227?F\027]t\321E\327?t\321E\027]t\301?\000\000\000\000\000\000\320?/\272\350\242\213.\342?t\321E\027]t\301?\000\000\000\000\000\000\320?t\321E\027]t\321?]t\321E\027]\304?t\321E\027]t\261?t\321E\027]t\321?F\027]t\321E\307?F\027]t\321E\307?\030]t\321E\027\275?\322E\027]t\321\325?\000\000\000\000\000\000\340?t\321E\027]t\321?]t\321E\027]\304?F\027]t\321E\307?\214.\272\350\242\213\336?\000\000\000\000\000\000\320?\272\350\242\213.\272\340?\322E\027]t\321\345?\214.\272\350\242\213\336?/\272\350\242\213.\312?/\272\350\242\213.\312?/\272\350\242\213.\332?F\027]t\321E\327?F\027]t\321E\327?F\027]t\321E\327?\322E\027]t\321\325?F\027]t\321E\307?/\272\350\242\213.\332?\000\000\000\000\000\000\320?/\272\350\242\213.\332?\351\242\213.\272\350\322?F\027]t\321E\327?\322E\027]t\321\325?]t\321E\027]\304?\322E\027]t\321\325?\272\350\242\213.\272\340?]t\321E\027]\304?]t\321E\027]\324?F\027]t\321E\267?]t\321E\027]\304?F\027]t\321E\327?F\027]t\321E\327?t\321E\027]t\261?\214.\272\350\242\213\346?\000\000\000\000\000\000\320?\214.\272\350\242\213\336?\030]t\321E\027\275?]t\321E\027]\324?t\321E\027]t\301?F\027]t\321E\357?]t\321E\027]\324?\322E\027]t\321\345?/\272\350\242\213.\312?\322E\027]t\321\325?\030]t\321E\027\335?]t\321E\027]\324?]t\321E\027]\324?\000\000\000\000\000\000\340?\351\242\213.\272\350\322?t\321E\027]t\301?\272\350\242\213.\272\340?/\272\350\242\213.\352?\243\213.\272\350\242\333?]t\321E\027]\304?\243\213.\272\350\242\333?\322E\027]t\321\325?F\027]t\321E\327?/\272\350\242\213.\332?t\321E\027]t\341?]t\321E\027]\324?\000\000\000\000\000\000\340?F\027]t\321E\307?\030]t\321E\027\315?\351\242\213.\272\350\322?F\027]t\321E\307?\272\350\242\213.\272\330?t\321E\027]t\301?t\321E\027]t\341?F\027]t\321E\307?\272\350\242\213.\272\340?F\027]t\321E\307?]t\321E\027]\304?]t\321E\027]\344?F\027]t\321E\327?\030]t\321E\027\335?\243\213.\272\350\242\333?F\027]t\321E\327?\351\242\213.\272\350\322?\214.\272\350\242\213\336?F\027]t\321E\327?\000\000\000\000\000\000\320?\243\213.\272\350\242\333?\322E\027]t\321\325?\030]t\321E\027\315?]t\321E\027]\324?/\272\350\242\213.\312?]t\321E\027]\324?\030]t\321E\027\315?\030]t\321E\027\315?\214.\272\350\242\213\346?\214.\272\350\242\213\336?]t\321E\027]\324?\322E\027]t\321\345?\030]t\321E\027\275?\351\242\213.\272\350\322?\030]t\321E\027\315?\030]t\321E\027\355?t\321E\027]t\301?t\321E\027]t\321?t\321E\027]t\341?t\321E\027]t\301?\000\000\000\000\000\000\320?\030]t\321E\027\335?F\027]t\321E\307?]t\321E\027]\324?\030]t\321E\027\275?\243\213.\272\350\242\333?F\027]t\321E\307?\000\000\000\000\000\000\340?F\027]t\321E\327?F\027]t\321E\327?]t\321E\027]\324?]t\321E\027]\324?/\272\350\242\213.\312?\000\000\000\000\000\000\320?/\272\350\242\213.\332?\351\242\213.\272\350\322?\030]t\321E\027\315?/\272\350\242\213.\332?\030]t\321E\027\335?\351\242\213.\272\350\342?\030]t\321E\027\315?t\321E\027]t\301?t\321E\027]t\261?"
      }
    }
  }
}
node {
  name: "normalize_element/component_1"
  op: "Const"
  device: "/device:CPU:0"
  attr {
    key: "_output_shapes"
    value {
      list {
        shape {
          dim {
            size: 879
          }
        }
      }
    }
  }
  attr {
    key: "dtype"
    value {
      type: DT_INT32
    }
  }
  attr {
    key: "value"
    value {
      tensor {
        dtype: DT_INT32
        tensor_shape {
          dim {
            size: 879
          }
        }
        tensor_content: "\001\000\000\000\001\000\000\000\001\000\000\000\001\000\000\000\001\000\000\000\000\000\000\000\001\000\000\000\000\000\000\000\001\000\000\000\001\000\000\000\001\000\000\000\001\000\000\000\001\000\000\000\001\000\000\000\001\000\000\000\001\000\000\000\000\000\000\000\001\000\000\000\001\000\000\000\001\000\000\000\000\000\000\000\001\000\000\000\000\000\000\000\001\000\000\000\000\000\000\000\001\000\000\000\001\000\000\000\001\000\000\000\001\000\000\000\001\000\000\000\000\000\000\000\001\000\000\000\000\000\000\000\001\000\000\000\001\000\000\000\001\000\000\000\001\000\000\000\000\000\000\000\001\000\000\000\000\000\000\000\001\000\000\000\001\000\000\000\001\000\000\000\001\000\000\000\000\000\000\000\001\000\000\000\000\000\000\000\001\000\000\000\001\000\000\000\000\000\000\000\001\000\000\000\001\000\000\000\001\000\000\000\001\000\000\000\001\000\000\000\000\000\000\000\001\000\000\000\001\000\000\000\001\000\000\000\002\000\000\000\001\000\000\000\001\000\000\000\001\000\000\000\001\000\000\000\001\000\000\000\001\000\000\000\001\000\000\000\001\000\000\000\001\000\000\000\001\000\000\000\001\000\000\000\001\000\000\000\001\000\000\000\001\000\000\000\000\000\000\000\001\000\000\000\001\000\000\000\001\000\000\000\001\000\000\000\000\000\000\000\001\000\000\000\000\000\000\000\001\000\000\000\001\000\000\000\001\000\000\000\001\000\000\000\001\000\000\000\001\000\000\000\002\000\000\000\001\000\000\000\001\000\000\000\001\000\000\000\000\000\000\000\001\000\000\000\001\000\000\000\001\000\000\000\001\000\000\000\001\000\000\000\001\000\000\000\000\000\000\000\001\000\000\000\001\000\000\000\001\000\000\000\001\000\000\000\001\000\000\000\001\000\000\000\001\000\000\000\000\000\000\000\000\000\000\000\000\000\000\000\001\000\000\000\001\000\000\000\001\000\000\000\000\000\000\000\000\000\000\000\001\000\000\000\001\000\000\000\001\000\000\000\001\000\000\000\001\000\000\000\000\000\000\000\001\000\000\000\001\000\000\000\001\000\000\000\001\000\000\000\001\000\000\000\001\000\000\000\001\000\000\000\001\000\000\000\001\000\000\000\001\000\000\000\000\000\000\000\001\000\000\000\001\000\000\000\001\000\000\000\000\000\000\000\002\000\000\000\001\000\000\000\001\000\000\000\001\000\000\000\000\000\000\000\001\000\000\000\001\000\000\000\001\000\000\000\001\000\000\000\001\000\000\000\001\000\000\000\001\000\000\000\000\000\000\000\001\000\000\000\001\000\000\000\000\000\000\000\001\000\000\000\001\000\000\000\001\000\000\000\001\000\000\000\001\000\000\000\001\000\000\000\001\000\000\000\001\000\000\000\001\000\000\000\001\000\000\000\000\000\000\000\001\000\000\000\000\000\000\000\000\000\000\000\001\000\000\000\001\000\000\000\001\000\000\000\001\000\000\000\001\000\000\000\001\000\000\000\001\000\000\000\000\000\000\000\001\000\000\000\001\000\000\000\001\000\000\000\000\000\000\000\001\000\000\000\001\000\000\000\001\000\000\000\001\000\000\000\001\000\000\000\001\000\000\000\001\000\000\000\001\000\000\000\001\000\000\000\001\000\000\000\001\000\000\000\001\000\000\000\001\000\000\000\000\000\000\000\001\000\000\000\001\000\000\000\001\000\000\000\001\000\000\000\000\000\000\000\000\000\000\000\000\000\000\000\001\000\000\000\002\000\000\000\001\000\000\000\001\000\000\000\000\000\000\000\000\000\000\000\001\000\000\000\001\000\000\000\001\000\000\000\000\000\000\000\001\000\000\000\000\000\000\000\001\000\000\000\001\000\000\000\001\000\000\000\001\000\000\000\000\000\000\000\000\000\000\000\001\000\000\000\001\000\000\000\001\000\000\000\001\000\000\000\001\000\000\000\001\000\000\000\001\000\000\000\001\000\000\000\000\000\000\000\001\000\000\000\001\000\000\000\001\000\000\000\001\000\000\000\001\000\000\000\001\000\000\000\001\000\000\000\001\000\000\000\001\000\000\000\000\000\000\000\001\000\000\000\001\000\000\000\001\000\000\000\001\000\000\000\001\000\000\000\001\000\000\000\001\000\000\000\001\000\000\000\001\000\000\000\000\000\000\000\001\000\000\000\000\000\000\000\001\000\000\000\001\000\000\000\000\000\000\000\001\000\000\000\001\000\000\000\000\000\000\000\001\000\000\000\001\000\000\000\001\000\000\000\001\000\000\000\001\000\000\000\000\000\000\000\000\000\000\000\001\000\000\000\000\000\000\000\001\000\000\000\001\000\000\000\000\000\000\000\001\000\000\000\001\000\000\000\001\000\000\000\000\000\000\000\000\000\000\000\001\000\000\000\001\000\000\000\001\000\000\000\002\000\000\000\001\000\000\000\000\000\000\000\001\000\000\000\001\000\000\000\001\000\000\000\001\000\000\000\001\000\000\000\001\000\000\000\001\000\000\000\000\000\000\000\000\000\000\000\001\000\000\000\000\000\000\000\001\000\000\000\001\000\000\000\001\000\000\000\001\000\000\000\001\000\000\000\001\000\000\000\001\000\000\000\001\000\000\000\001\000\000\000\001\000\000\000\001\000\000\000\001\000\000\000\001\000\000\000\001\000\000\000\000\000\000\000\001\000\000\000\000\000\000\000\001\000\000\000\001\000\000\000\001\000\000\000\000\000\000\000\001\000\000\000\001\000\000\000\000\000\000\000\000\000\000\000\001\000\000\000\001\000\000\000\001\000\000\000\001\000\000\000\001\000\000\000\001\000\000\000\000\000\000\000\000\000\000\000\001\000\000\000\001\000\000\000\000\000\000\000\000\000\000\000\002\000\000\000\001\000\000\000\001\000\000\000\001\000\000\000\000\000\000\000\000\000\000\000\001\000\000\000\000\000\000\000\002\000\000\000\001\000\000\000\001\000\000\000\001\000\000\000\001\000\000\000\000\000\000\000\000\000\000\000\000\000\000\000\001\000\000\000\001\000\000\000\001\000\000\000\001\000\000\000\001\000\000\000\001\000\000\000\000\000\000\000\001\000\000\000\000\000\000\000\000\000\000\000\000\000\000\000\001\000\000\000\001\000\000\000\001\000\000\000\001\000\000\000\000\000\000\000\001\000\000\000\001\000\000\000\000\000\000\000\001\000\000\000\001\000\000\000\001\000\000\000\000\000\000\000\001\000\000\000\000\000\000\000\000\000\000\000\001\000\000\000\001\000\000\000\001\000\000\000\000\000\000\000\001\000\000\000\001\000\000\000\000\000\000\000\001\000\000\000\001\000\000\000\001\000\000\000\001\000\000\000\001\000\000\000\001\000\000\000\001\000\000\000\001\000\000\000\001\000\000\000\000\000\000\000\001\000\000\000\001\000\000\000\001\000\000\000\001\000\000\000\000\000\000\000\001\000\000\000\001\000\000\000\001\000\000\000\001\000\000\000\001\000\000\000\001\000\000\000\001\000\000\000\001\000\000\000\001\000\000\000\001\000\000\000\001\000\000\000\001\000\000\000\001\000\000\000\001\000\000\000\000\000\000\000\001\000\000\000\001\000\000\000\000\000\000\000\001\000\000\000\000\000\000\000\001\000\000\000\001\000\000\000\001\000\000\000\001\000\000\000\001\000\000\000\001\000\000\000\001\000\000\000\001\000\000\000\001\000\000\000\001\000\000\000\001\000\000\000\001\000\000\000\001\000\000\000\001\000\000\000\001\000\000\000\000\000\000\000\001\000\000\000\001\000\000\000\001\000\000\000\001\000\000\000\001\000\000\000\000\000\000\000\001\000\000\000\001\000\000\000\001\000\000\000\000\000\000\000\001\000\000\000\001\000\000\000\001\000\000\000\001\000\000\000\001\000\000\000\001\000\000\000\000\000\000\000\001\000\000\000\001\000\000\000\001\000\000\000\001\000\000\000\001\000\000\000\001\000\000\000\001\000\000\000\001\000\000\000\000\000\000\000\001\000\000\000\000\000\000\000\000\000\000\000\001\000\000\000\001\000\000\000\001\000\000\000\001\000\000\000\001\000\000\000\001\000\000\000\001\000\000\000\001\000\000\000\000\000\000\000\000\000\000\000\001\000\000\000\001\000\000\000\001\000\000\000\001\000\000\000\001\000\000\000\000\000\000\000\001\000\000\000\001\000\000\000\001\000\000\000\001\000\000\000\001\000\000\000\000\000\000\000\001\000\000\000\001\000\000\000\001\000\000\000\001\000\000\000\001\000\000\000\001\000\000\000\000\000\000\000\001\000\000\000\001\000\000\000\001\000\000\000\001\000\000\000\001\000\000\000\001\000\000\000\001\000\000\000\001\000\000\000\001\000\000\000\001\000\000\000\001\000\000\000\000\000\000\000\001\000\000\000\000\000\000\000\001\000\000\000\001\000\000\000\001\000\000\000\001\000\000\000\001\000\000\000\001\000\000\000\001\000\000\000\001\000\000\000\001\000\000\000\001\000\000\000\001\000\000\000\001\000\000\000\001\000\000\000\001\000\000\000\001\000\000\000\001\000\000\000\000\000\000\000\000\000\000\000\001\000\000\000\000\000\000\000\001\000\000\000\001\000\000\000\001\000\000\000\001\000\000\000\001\000\000\000\000\000\000\000\001\000\000\000\001\000\000\000\001\000\000\000\001\000\000\000\000\000\000\000\001\000\000\000\000\000\000\000\001\000\000\000\001\000\000\000\001\000\000\000\000\000\000\000\000\000\000\000\001\000\000\000\001\000\000\000\001\000\000\000\001\000\000\000\001\000\000\000\001\000\000\000\001\000\000\000\001\000\000\000\001\000\000\000\001\000\000\000\001\000\000\000\000\000\000\000\001\000\000\000\001\000\000\000\001\000\000\000\001\000\000\000\001\000\000\000\001\000\000\000\001\000\000\000\001\000\000\000\001\000\000\000\001\000\000\000\001\000\000\000\001\000\000\000\001\000\000\000\001\000\000\000\001\000\000\000\001\000\000\000\001\000\000\000\000\000\000\000\001\000\000\000\001\000\000\000\001\000\000\000\001\000\000\000\000\000\000\000\001\000\000\000\001\000\000\000\000\000\000\000\000\000\000\000\001\000\000\000\001\000\000\000\001\000\000\000\000\000\000\000\000\000\000\000\000\000\000\000\001\000\000\000\001\000\000\000\001\000\000\000\001\000\000\000\001\000\000\000\000\000\000\000\001\000\000\000\001\000\000\000\001\000\000\000\001\000\000\000\001\000\000\000\001\000\000\000\001\000\000\000\001\000\000\000\001\000\000\000\001\000\000\000\001\000\000\000\001\000\000\000\001\000\000\000\001\000\000\000\001\000\000\000\000\000\000\000\001\000\000\000\000\000\000\000\001\000\000\000\001\000\000\000\001\000\000\000\001\000\000\000\001\000\000\000\001\000\000\000\001\000\000\000\001\000\000\000\001\000\000\000\001\000\000\000\000\000\000\000\001\000\000\000\001\000\000\000\001\000\000\000\002\000\000\000\001\000\000\000\001\000\000\000\000\000\000\000\001\000\000\000\001\000\000\000\001\000\000\000\000\000\000\000\001\000\000\000\001\000\000\000\001\000\000\000\001\000\000\000\001\000\000\000\000\000\000\000\001\000\000\000\001\000\000\000\001\000\000\000\001\000\000\000\001\000\000\000\001\000\000\000\001\000\000\000\000\000\000\000\002\000\000\000\001\000\000\000\001\000\000\000\000\000\000\000\001\000\000\000\001\000\000\000\001\000\000\000\001\000\000\000\001\000\000\000\001\000\000\000\000\000\000\000\001\000\000\000\001\000\000\000\001\000\000\000\001\000\000\000\001\000\000\000\001\000\000\000\001\000\000\000\001\000\000\000\001\000\000\000\001\000\000\000\000\000\000\000\001\000\000\000\001\000\000\000\001\000\000\000\001\000\000\000\001\000\000\000\001\000\000\000\001\000\000\000\001\000\000\000\000\000\000\000\001\000\000\000\001\000\000\000\001\000\000\000\001\000\000\000\001\000\000\000\001\000\000\000\001\000\000\000\001\000\000\000\001\000\000\000\001\000\000\000\001\000\000\000\000\000\000\000\001\000\000\000\000\000\000\000\001\000\000\000\001\000\000\000\001\000\000\000\000\000\000\000\001\000\000\000\001\000\000\000\000\000\000\000\001\000\000\000\001\000\000\000\001\000\000\000\001\000\000\000\001\000\000\000\001\000\000\000\000\000\000\000\001\000\000\000\001\000\000\000\001\000\000\000\001\000\000\000\001\000\000\000\001\000\000\000\001\000\000\000\001\000\000\000\001\000\000\000\001\000\000\000\001\000\000\000\001\000\000\000\001\000\000\000\001\000\000\000\001\000\000\000\001\000\000\000\001\000\000\000\001\000\000\000\001\000\000\000\001\000\000\000\001\000\000\000\001\000\000\000\001\000\000\000\000\000\000\000\001\000\000\000\000\000\000\000\001\000\000\000\001\000\000\000\001\000\000\000\000\000\000\000\001\000\000\000\001\000\000\000\001\000\000\000\000\000\000\000\001\000\000\000\001\000\000\000\001\000\000\000\001\000\000\000\001\000\000\000\000\000\000\000\001\000\000\000\001\000\000\000\001\000\000\000\000\000\000\000\001\000\000\000\001\000\000\000\001\000\000\000\000\000\000\000\000\000\000\000\000\000\000\000\001\000\000\000\001\000\000\000\000\000\000\000\001\000\000\000\001\000\000\000\001\000\000\000\000\000\000\000\001\000\000\000\001\000\000\000\001\000\000\000\001\000\000\000\001\000\000\000\001\000\000\000\001\000\000\000\001\000\000\000\000\000\000\000\001\000\000\000\001\000\000\000\000\000\000\000\001\000\000\000\001\000\000\000\001\000\000\000\001\000\000\000\001\000\000\000\001\000\000\000\001\000\000\000\001\000\000\000\001\000\000\000\001\000\000\000\000\000\000\000\001\000\000\000\001\000\000\000\000\000\000\000\000\000\000\000\000\000\000\000\001\000\000\000\000\000\000\000\001\000\000\000\001\000\000\000\001\000\000\000\002\000\000\000\001\000\000\000\000\000\000\000\001\000\000\000\001\000\000\000\001\000\000\000\000\000\000\000\001\000\000\000\001\000\000\000\001\000\000\000\001\000\000\000\000\000\000\000\001\000\000\000\001\000\000\000\001\000\000\000\001\000\000\000\001\000\000\000\001\000\000\000\001\000\000\000\001\000\000\000\001\000\000\000\001\000\000\000\000\000\000\000\001\000\000\000\001\000\000\000\000\000\000\000\001\000\000\000\001\000\000\000\001\000\000\000\000\000\000\000\000\000\000\000\001\000\000\000\001\000\000\000\001\000\000\000\001\000\000\000\000\000\000\000\001\000\000\000\000\000\000\000\001\000\000\000\001\000\000\000\000\000\000\000\000\000\000\000\000\000\000\000\001\000\000\000\001\000\000\000\001\000\000\000\001\000\000\000\001\000\000\000\000\000\000\000\001\000\000\000\001\000\000\000\001\000\000\000\001\000\000\000\000\000\000\000\002\000\000\000\001\000\000\000\000\000\000\000\001\000\000\000\001\000\000\000\001\000\000\000\001\000\000\000\001\000\000\000\001\000\000\000\001\000\000\000\001\000\000\000\001\000\000\000\001\000\000\000\000\000\000\000\001\000\000\000\001\000\000\000\002\000\000\000\002\000\000\000\001\000\000\000\001\000\000\000\001\000\000\000\000\000\000\000\000\000\000\000\001\000\000\000\001\000\000\000\001\000\000\000\001\000\000\000\001\000\000\000\001\000\000\000\001\000\000\000\001\000\000\000\001\000\000\000\001\000\000\000\001\000\000\000\001\000\000\000\000\000\000\000"
      }
    }
  }
}
node {
  name: "normalize_element/component_2"
  op: "Const"
  device: "/device:CPU:0"
  attr {
    key: "_output_shapes"
    value {
      list {
        shape {
          dim {
            size: 879
          }
        }
      }
    }
  }
  attr {
    key: "dtype"
    value {
      type: DT_INT32
    }
  }
  attr {
    key: "value"
    value {
      tensor {
        dtype: DT_INT32
        tensor_shape {
          dim {
            size: 879
          }
        }
        tensor_content: "\000\000\000\000\000\000\000\000\000\000\000\000\002\000\000\000\000\000\000\000\002\000\000\000\000\000\000\000\000\000\000\000\000\000\000\000\000\000\000\000\000\000\000\000\002\000\000\000\000\000\000\000\002\000\000\000\000\000\000\000\000\000\000\000\002\000\000\000\002\000\000\000\000\000\000\000\000\000\000\000\000\000\000\000\000\000\000\000\000\000\000\000\002\000\000\000\000\000\000\000\000\000\000\000\000\000\000\000\000\000\000\000\000\000\000\000\000\000\000\000\000\000\000\000\000\000\000\000\002\000\000\000\000\000\000\000\002\000\000\000\001\000\000\000\000\000\000\000\002\000\000\000\002\000\000\000\000\000\000\000\000\000\000\000\000\000\000\000\000\000\000\000\001\000\000\000\000\000\000\000\001\000\000\000\000\000\000\000\000\000\000\000\000\000\000\000\002\000\000\000\000\000\000\000\000\000\000\000\000\000\000\000\002\000\000\000\001\000\000\000\000\000\000\000\002\000\000\000\000\000\000\000\000\000\000\000\000\000\000\000\000\000\000\000\000\000\000\000\000\000\000\000\000\000\000\000\002\000\000\000\000\000\000\000\002\000\000\000\000\000\000\000\000\000\000\000\002\000\000\000\002\000\000\000\000\000\000\000\000\000\000\000\000\000\000\000\000\000\000\000\000\000\000\000\000\000\000\000\000\000\000\000\000\000\000\000\000\000\000\000\002\000\000\000\000\000\000\000\000\000\000\000\000\000\000\000\000\000\000\000\000\000\000\000\000\000\000\000\000\000\000\000\002\000\000\000\000\000\000\000\000\000\000\000\000\000\000\000\002\000\000\000\000\000\000\000\002\000\000\000\002\000\000\000\000\000\000\000\002\000\000\000\000\000\000\000\002\000\000\000\000\000\000\000\000\000\000\000\000\000\000\000\000\000\000\000\002\000\000\000\002\000\000\000\000\000\000\000\000\000\000\000\000\000\000\000\002\000\000\000\000\000\000\000\002\000\000\000\002\000\000\000\002\000\000\000\000\000\000\000\000\000\000\000\000\000\000\000\000\000\000\000\000\000\000\000\000\000\000\000\000\000\000\000\000\000\000\000\002\000\000\000\000\000\000\000\002\000\000\000\002\000\000\000\000\000\000\000\001\000\000\000\000\000\000\000\002\000\000\000\000\000\000\000\001\000\000\000\002\000\000\000\000\000\000\000\002\000\000\000\002\000\000\000\000\000\000\000\000\000\000\000\002\000\000\000\000\000\000\000\000\000\000\000\002\000\000\000\001\000\000\000\000\000\000\000\000\000\000\000\000\000\000\000\000\000\000\000\000\000\000\000\002\000\000\000\000\000\000\000\000\000\000\000\002\000\000\000\002\000\000\000\000\000\000\000\000\000\000\000\000\000\000\000\002\000\000\000\002\000\000\000\000\000\000\000\000\000\000\000\002\000\000\000\000\000\000\000\000\000\000\000\000\000\000\000\002\000\000\000\002\000\000\000\000\000\000\000\002\000\000\000\000\000\000\000\000\000\000\000\000\000\000\000\000\000\000\000\002\000\000\000\001\000\000\000\000\000\000\000\000\000\000\000\002\000\000\000\000\000\000\000\002\000\000\000\002\000\000\000\002\000\000\000\001\000\000\000\000\000\000\000\002\000\000\000\001\000\000\000\002\000\000\000\002\000\000\000\000\000\000\000\000\000\000\000\000\000\000\000\000\000\000\000\002\000\000\000\000\000\000\000\001\000\000\000\000\000\000\000\000\000\000\000\000\000\000\000\000\000\000\000\002\000\000\000\000\000\000\000\000\000\000\000\002\000\000\000\000\000\000\000\000\000\000\000\002\000\000\000\000\000\000\000\000\000\000\000\000\000\000\000\000\000\000\000\000\000\000\000\000\000\000\000\002\000\000\000\000\000\000\000\002\000\000\000\000\000\000\000\000\000\000\000\000\000\000\000\000\000\000\000\002\000\000\000\000\000\000\000\002\000\000\000\000\000\000\000\000\000\000\000\000\000\000\000\002\000\000\000\000\000\000\000\000\000\000\000\000\000\000\000\002\000\000\000\002\000\000\000\000\000\000\000\000\000\000\000\000\000\000\000\001\000\000\000\000\000\000\000\000\000\000\000\002\000\000\000\000\000\000\000\000\000\000\000\000\000\000\000\000\000\000\000\000\000\000\000\002\000\000\000\000\000\000\000\000\000\000\000\000\000\000\000\000\000\000\000\000\000\000\000\000\000\000\000\000\000\000\000\000\000\000\000\002\000\000\000\000\000\000\000\000\000\000\000\000\000\000\000\000\000\000\000\002\000\000\000\000\000\000\000\002\000\000\000\002\000\000\000\002\000\000\000\002\000\000\000\000\000\000\000\000\000\000\000\000\000\000\000\000\000\000\000\000\000\000\000\000\000\000\000\000\000\000\000\002\000\000\000\002\000\000\000\000\000\000\000\000\000\000\000\000\000\000\000\002\000\000\000\002\000\000\000\000\000\000\000\002\000\000\000\002\000\000\000\000\000\000\000\000\000\000\000\000\000\000\000\000\000\000\000\000\000\000\000\002\000\000\000\000\000\000\000\000\000\000\000\000\000\000\000\000\000\000\000\000\000\000\000\000\000\000\000\002\000\000\000\000\000\000\000\002\000\000\000\002\000\000\000\002\000\000\000\002\000\000\000\000\000\000\000\002\000\000\000\000\000\000\000\000\000\000\000\000\000\000\000\002\000\000\000\002\000\000\000\002\000\000\000\000\000\000\000\002\000\000\000\002\000\000\000\002\000\000\000\002\000\000\000\000\000\000\000\000\000\000\000\002\000\000\000\001\000\000\000\002\000\000\000\000\000\000\000\000\000\000\000\002\000\000\000\000\000\000\000\000\000\000\000\000\000\000\000\002\000\000\000\000\000\000\000\000\000\000\000\001\000\000\000\000\000\000\000\000\000\000\000\000\000\000\000\000\000\000\000\002\000\000\000\000\000\000\000\000\000\000\000\001\000\000\000\000\000\000\000\000\000\000\000\000\000\000\000\000\000\000\000\000\000\000\000\000\000\000\000\000\000\000\000\002\000\000\000\000\000\000\000\000\000\000\000\000\000\000\000\001\000\000\000\002\000\000\000\002\000\000\000\000\000\000\000\002\000\000\000\000\000\000\000\002\000\000\000\001\000\000\000\002\000\000\000\000\000\000\000\002\000\000\000\002\000\000\000\002\000\000\000\000\000\000\000\002\000\000\000\000\000\000\000\000\000\000\000\000\000\000\000\000\000\000\000\000\000\000\000\000\000\000\000\000\000\000\000\000\000\000\000\001\000\000\000\000\000\000\000\000\000\000\000\000\000\000\000\000\000\000\000\002\000\000\000\002\000\000\000\002\000\000\000\002\000\000\000\000\000\000\000\000\000\000\000\000\000\000\000\000\000\000\000\000\000\000\000\002\000\000\000\000\000\000\000\002\000\000\000\002\000\000\000\000\000\000\000\000\000\000\000\000\000\000\000\000\000\000\000\000\000\000\000\000\000\000\000\002\000\000\000\002\000\000\000\002\000\000\000\000\000\000\000\000\000\000\000\000\000\000\000\002\000\000\000\000\000\000\000\002\000\000\000\000\000\000\000\000\000\000\000\000\000\000\000\000\000\000\000\002\000\000\000\000\000\000\000\002\000\000\000\000\000\000\000\002\000\000\000\000\000\000\000\000\000\000\000\002\000\000\000\002\000\000\000\001\000\000\000\000\000\000\000\001\000\000\000\002\000\000\000\002\000\000\000\000\000\000\000\000\000\000\000\000\000\000\000\000\000\000\000\000\000\000\000\000\000\000\000\001\000\000\000\000\000\000\000\000\000\000\000\000\000\000\000\002\000\000\000\000\000\000\000\000\000\000\000\000\000\000\000\002\000\000\000\000\000\000\000\000\000\000\000\000\000\000\000\000\000\000\000\002\000\000\000\000\000\000\000\001\000\000\000\000\000\000\000\000\000\000\000\000\000\000\000\002\000\000\000\001\000\000\000\000\000\000\000\002\000\000\000\002\000\000\000\000\000\000\000\002\000\000\000\000\000\000\000\000\000\000\000\002\000\000\000\002\000\000\000\000\000\000\000\002\000\000\000\002\000\000\000\000\000\000\000\001\000\000\000\000\000\000\000\002\000\000\000\000\000\000\000\002\000\000\000\002\000\000\000\001\000\000\000\000\000\000\000\000\000\000\000\000\000\000\000\000\000\000\000\000\000\000\000\002\000\000\000\000\000\000\000\002\000\000\000\000\000\000\000\000\000\000\000\001\000\000\000\002\000\000\000\000\000\000\000\000\000\000\000\001\000\000\000\000\000\000\000\001\000\000\000\002\000\000\000\002\000\000\000\000\000\000\000\000\000\000\000\000\000\000\000\002\000\000\000\000\000\000\000\000\000\000\000\000\000\000\000\000\000\000\000\000\000\000\000\000\000\000\000\000\000\000\000\000\000\000\000\000\000\000\000\002\000\000\000\000\000\000\000\000\000\000\000\000\000\000\000\002\000\000\000\000\000\000\000\000\000\000\000\000\000\000\000\000\000\000\000\000\000\000\000\000\000\000\000\002\000\000\000\000\000\000\000\000\000\000\000\000\000\000\000\000\000\000\000\000\000\000\000\000\000\000\000\000\000\000\000\000\000\000\000\000\000\000\000\000\000\000\000\002\000\000\000\000\000\000\000\000\000\000\000\000\000\000\000\000\000\000\000\000\000\000\000\002\000\000\000\000\000\000\000\000\000\000\000\000\000\000\000\000\000\000\000\000\000\000\000\002\000\000\000\002\000\000\000\000\000\000\000\000\000\000\000\000\000\000\000\000\000\000\000\000\000\000\000\000\000\000\000\000\000\000\000\000\000\000\000\001\000\000\000\002\000\000\000\000\000\000\000\000\000\000\000\002\000\000\000\002\000\000\000\000\000\000\000\002\000\000\000\000\000\000\000\002\000\000\000\000\000\000\000\000\000\000\000\002\000\000\000\000\000\000\000\000\000\000\000\000\000\000\000\000\000\000\000\002\000\000\000\000\000\000\000\000\000\000\000\000\000\000\000\000\000\000\000\000\000\000\000\000\000\000\000\000\000\000\000\000\000\000\000\002\000\000\000\000\000\000\000\000\000\000\000\000\000\000\000\002\000\000\000\000\000\000\000\000\000\000\000\000\000\000\000\002\000\000\000\000\000\000\000\002\000\000\000\000\000\000\000\002\000\000\000\000\000\000\000\000\000\000\000\000\000\000\000\000\000\000\000\000\000\000\000\002\000\000\000\000\000\000\000\000\000\000\000\002\000\000\000\000\000\000\000\000\000\000\000\002\000\000\000\002\000\000\000\002\000\000\000\000\000\000\000\000\000\000\000\002\000\000\000\001\000\000\000\000\000\000\000\000\000\000\000\000\000\000\000\000\000\000\000\000\000\000\000\000\000\000\000\002\000\000\000\002\000\000\000\001\000\000\000\002\000\000\000\002\000\000\000\000\000\000\000\000\000\000\000\000\000\000\000\001\000\000\000\000\000\000\000\000\000\000\000\000\000\000\000\000\000\000\000\000\000\000\000\002\000\000\000\000\000\000\000\000\000\000\000\002\000\000\000\000\000\000\000\000\000\000\000\000\000\000\000\001\000\000\000\002\000\000\000\000\000\000\000\002\000\000\000\000\000\000\000\002\000\000\000\000\000\000\000\000\000\000\000\001\000\000\000\000\000\000\000\002\000\000\000\002\000\000\000\000\000\000\000\002\000\000\000\000\000\000\000\002\000\000\000\000\000\000\000\000\000\000\000\002\000\000\000\000\000\000\000\001\000\000\000\002\000\000\000\000\000\000\000\000\000\000\000\000\000\000\000\002\000\000\000\002\000\000\000\000\000\000\000\002\000\000\000\000\000\000\000\000\000\000\000\002\000\000\000\002\000\000\000\000\000\000\000\000\000\000\000\002\000\000\000\002\000\000\000\000\000\000\000\000\000\000\000\002\000\000\000\000\000\000\000\000\000\000\000\002\000\000\000\000\000\000\000\000\000\000\000\002\000\000\000\002\000\000\000\000\000\000\000\002\000\000\000\001\000\000\000\000\000\000\000\000\000\000\000\000\000\000\000\000\000\000\000\002\000\000\000\000\000\000\000\001\000\000\000\000\000\000\000\000\000\000\000\002\000\000\000\000\000\000\000\002\000\000\000\000\000\000\000\000\000\000\000\000\000\000\000\002\000\000\000\000\000\000\000\000\000\000\000\002\000\000\000\000\000\000\000\000\000\000\000\000\000\000\000\002\000\000\000\002\000\000\000\000\000\000\000\002\000\000\000\002\000\000\000\000\000\000\000\001\000\000\000\001\000\000\000\000\000\000\000\000\000\000\000\002\000\000\000\002\000\000\000\001\000\000\000\000\000\000\000\002\000\000\000\002\000\000\000\002\000\000\000\000\000\000\000\002\000\000\000\000\000\000\000\000\000\000\000\002\000\000\000\000\000\000\000\000\000\000\000\001\000\000\000\002\000\000\000\000\000\000\000\002\000\000\000\000\000\000\000\000\000\000\000\002\000\000\000\000\000\000\000\000\000\000\000\000\000\000\000\001\000\000\000\000\000\000\000\000\000\000\000\000\000\000\000\000\000\000\000\000\000\000\000\000\000\000\000\002\000\000\000\000\000\000\000\000\000\000\000\000\000\000\000\002\000\000\000\001\000\000\000\002\000\000\000\000\000\000\000\000\000\000\000\000\000\000\000\000\000\000\000\000\000\000\000\002\000\000\000\000\000\000\000\002\000\000\000\002\000\000\000\002\000\000\000\002\000\000\000\002\000\000\000\000\000\000\000\000\000\000\000\000\000\000\000\000\000\000\000\002\000\000\000\002\000\000\000\000\000\000\000\000\000\000\000\002\000\000\000\001\000\000\000\000\000\000\000\000\000\000\000\002\000\000\000\002\000\000\000\001\000\000\000\000\000\000\000\000\000\000\000\002\000\000\000\000\000\000\000\000\000\000\000\000\000\000\000\000\000\000\000\000\000\000\000\000\000\000\000\000\000\000\000\000\000\000\000\002\000\000\000\002\000\000\000\002\000\000\000\002\000\000\000\002\000\000\000\002\000\000\000\000\000\000\000\002\000\000\000\000\000\000\000\002\000\000\000\000\000\000\000\000\000\000\000\002\000\000\000\002\000\000\000\000\000\000\000\000\000\000\000\002\000\000\000\000\000\000\000\002\000\000\000\000\000\000\000\000\000\000\000\000\000\000\000\000\000\000\000\000\000\000\000\002\000\000\000\000\000\000\000\000\000\000\000\000\000\000\000\000\000\000\000\000\000\000\000\000\000\000\000\000\000\000\000\002\000\000\000\000\000\000\000\000\000\000\000\000\000\000\000\000\000\000\000\000\000\000\000\000\000\000\000\000\000\000\000\002\000\000\000\001\000\000\000\000\000\000\000\000\000\000\000\000\000\000\000\000\000\000\000\000\000\000\000\000\000\000\000\002\000\000\000\000\000\000\000\000\000\000\000\000\000\000\000\000\000\000\000\000\000\000\000\000\000\000\000\000\000\000\000\000\000\000\000\002\000\000\000\000\000\000\000\000\000\000\000\002\000\000\000\000\000\000\000\000\000\000\000\000\000\000\000\000\000\000\000\000\000\000\000\000\000\000\000\000\000\000\000\000\000\000\000\000\000\000\000\002\000\000\000\000\000\000\000\000\000\000\000\000\000\000\000\002\000\000\000\000\000\000\000\000\000\000\000\002\000\000\000\000\000\000\000\000\000\000\000\002\000\000\000\000\000\000\000\000\000\000\000\000\000\000\000\000\000\000\000\000\000\000\000\000\000\000\000\001\000\000\000\000\000\000\000\000\000\000\000\000\000\000\000\001\000\000\000\000\000\000\000\000\000\000\000\000\000\000\000\000\000\000\000"
      }
    }
  }
}
node {
  name: "normalize_element/component_3"
  op: "Const"
  device: "/device:CPU:0"
  attr {
    key: "_output_shapes"
    value {
      list {
        shape {
          dim {
            size: 879
          }
        }
      }
    }
  }
  attr {
    key: "dtype"
    value {
      type: DT_INT32
    }
  }
  attr {
    key: "value"
    value {
      tensor {
        dtype: DT_INT32
        tensor_shape {
          dim {
            size: 879
          }
        }
        tensor_content: "\000\000\000\000\001\000\000\000\002\000\000\000\001\000\000\000\001\000\000\000\001\000\000\000\000\000\000\000\002\000\000\000\000\000\000\000\002\000\000\000\002\000\000\000\001\000\000\000\002\000\000\000\002\000\000\000\002\000\000\000\000\000\000\000\001\000\000\000\002\000\000\000\000\000\000\000\000\000\000\000\000\000\000\000\001\000\000\000\000\000\000\000\001\000\000\000\002\000\000\000\000\000\000\000\001\000\000\000\002\000\000\000\001\000\000\000\002\000\000\000\000\000\000\000\000\000\000\000\002\000\000\000\000\000\000\000\002\000\000\000\001\000\000\000\001\000\000\000\002\000\000\000\001\000\000\000\000\000\000\000\001\000\000\000\000\000\000\000\002\000\000\000\001\000\000\000\001\000\000\000\000\000\000\000\002\000\000\000\002\000\000\000\002\000\000\000\002\000\000\000\000\000\000\000\000\000\000\000\001\000\000\000\002\000\000\000\001\000\000\000\002\000\000\000\001\000\000\000\001\000\000\000\001\000\000\000\000\000\000\000\000\000\000\000\002\000\000\000\000\000\000\000\001\000\000\000\002\000\000\000\001\000\000\000\000\000\000\000\001\000\000\000\001\000\000\000\002\000\000\000\001\000\000\000\000\000\000\000\001\000\000\000\000\000\000\000\002\000\000\000\000\000\000\000\001\000\000\000\000\000\000\000\002\000\000\000\002\000\000\000\002\000\000\000\002\000\000\000\000\000\000\000\000\000\000\000\000\000\000\000\000\000\000\000\002\000\000\000\000\000\000\000\001\000\000\000\001\000\000\000\002\000\000\000\000\000\000\000\001\000\000\000\000\000\000\000\002\000\000\000\001\000\000\000\002\000\000\000\002\000\000\000\001\000\000\000\002\000\000\000\001\000\000\000\001\000\000\000\000\000\000\000\002\000\000\000\002\000\000\000\002\000\000\000\000\000\000\000\000\000\000\000\000\000\000\000\000\000\000\000\001\000\000\000\002\000\000\000\002\000\000\000\002\000\000\000\001\000\000\000\002\000\000\000\001\000\000\000\002\000\000\000\000\000\000\000\000\000\000\000\000\000\000\000\002\000\000\000\001\000\000\000\001\000\000\000\002\000\000\000\001\000\000\000\002\000\000\000\001\000\000\000\002\000\000\000\002\000\000\000\002\000\000\000\000\000\000\000\002\000\000\000\002\000\000\000\000\000\000\000\002\000\000\000\000\000\000\000\000\000\000\000\001\000\000\000\000\000\000\000\002\000\000\000\002\000\000\000\001\000\000\000\001\000\000\000\000\000\000\000\001\000\000\000\001\000\000\000\002\000\000\000\002\000\000\000\001\000\000\000\000\000\000\000\002\000\000\000\002\000\000\000\002\000\000\000\000\000\000\000\000\000\000\000\002\000\000\000\002\000\000\000\001\000\000\000\002\000\000\000\001\000\000\000\001\000\000\000\001\000\000\000\000\000\000\000\000\000\000\000\001\000\000\000\001\000\000\000\002\000\000\000\002\000\000\000\000\000\000\000\000\000\000\000\002\000\000\000\002\000\000\000\001\000\000\000\002\000\000\000\002\000\000\000\002\000\000\000\000\000\000\000\001\000\000\000\002\000\000\000\002\000\000\000\001\000\000\000\000\000\000\000\001\000\000\000\002\000\000\000\002\000\000\000\001\000\000\000\002\000\000\000\001\000\000\000\000\000\000\000\000\000\000\000\002\000\000\000\000\000\000\000\001\000\000\000\000\000\000\000\002\000\000\000\002\000\000\000\000\000\000\000\002\000\000\000\000\000\000\000\002\000\000\000\002\000\000\000\001\000\000\000\002\000\000\000\002\000\000\000\001\000\000\000\000\000\000\000\001\000\000\000\002\000\000\000\001\000\000\000\000\000\000\000\002\000\000\000\002\000\000\000\002\000\000\000\001\000\000\000\002\000\000\000\000\000\000\000\002\000\000\000\002\000\000\000\000\000\000\000\001\000\000\000\000\000\000\000\001\000\000\000\000\000\000\000\001\000\000\000\002\000\000\000\000\000\000\000\000\000\000\000\001\000\000\000\002\000\000\000\000\000\000\000\000\000\000\000\000\000\000\000\001\000\000\000\001\000\000\000\001\000\000\000\001\000\000\000\002\000\000\000\002\000\000\000\001\000\000\000\001\000\000\000\002\000\000\000\000\000\000\000\000\000\000\000\001\000\000\000\002\000\000\000\001\000\000\000\001\000\000\000\001\000\000\000\002\000\000\000\001\000\000\000\000\000\000\000\000\000\000\000\002\000\000\000\002\000\000\000\000\000\000\000\001\000\000\000\001\000\000\000\002\000\000\000\002\000\000\000\002\000\000\000\002\000\000\000\002\000\000\000\000\000\000\000\000\000\000\000\002\000\000\000\002\000\000\000\002\000\000\000\001\000\000\000\002\000\000\000\002\000\000\000\001\000\000\000\002\000\000\000\002\000\000\000\002\000\000\000\002\000\000\000\001\000\000\000\001\000\000\000\000\000\000\000\000\000\000\000\001\000\000\000\002\000\000\000\000\000\000\000\000\000\000\000\002\000\000\000\002\000\000\000\000\000\000\000\001\000\000\000\000\000\000\000\001\000\000\000\000\000\000\000\001\000\000\000\001\000\000\000\002\000\000\000\000\000\000\000\001\000\000\000\001\000\000\000\001\000\000\000\002\000\000\000\000\000\000\000\002\000\000\000\000\000\000\000\001\000\000\000\002\000\000\000\002\000\000\000\002\000\000\000\002\000\000\000\001\000\000\000\002\000\000\000\002\000\000\000\000\000\000\000\000\000\000\000\002\000\000\000\001\000\000\000\000\000\000\000\002\000\000\000\002\000\000\000\002\000\000\000\000\000\000\000\000\000\000\000\000\000\000\000\002\000\000\000\001\000\000\000\001\000\000\000\000\000\000\000\002\000\000\000\001\000\000\000\002\000\000\000\001\000\000\000\002\000\000\000\001\000\000\000\000\000\000\000\001\000\000\000\001\000\000\000\002\000\000\000\001\000\000\000\000\000\000\000\002\000\000\000\002\000\000\000\002\000\000\000\002\000\000\000\002\000\000\000\002\000\000\000\000\000\000\000\001\000\000\000\002\000\000\000\002\000\000\000\000\000\000\000\002\000\000\000\000\000\000\000\001\000\000\000\001\000\000\000\002\000\000\000\002\000\000\000\002\000\000\000\002\000\000\000\002\000\000\000\000\000\000\000\002\000\000\000\002\000\000\000\001\000\000\000\000\000\000\000\002\000\000\000\000\000\000\000\000\000\000\000\002\000\000\000\000\000\000\000\001\000\000\000\001\000\000\000\001\000\000\000\000\000\000\000\000\000\000\000\002\000\000\000\000\000\000\000\002\000\000\000\002\000\000\000\001\000\000\000\002\000\000\000\002\000\000\000\000\000\000\000\000\000\000\000\002\000\000\000\002\000\000\000\000\000\000\000\001\000\000\000\002\000\000\000\000\000\000\000\000\000\000\000\000\000\000\000\002\000\000\000\002\000\000\000\002\000\000\000\002\000\000\000\001\000\000\000\001\000\000\000\000\000\000\000\000\000\000\000\002\000\000\000\001\000\000\000\001\000\000\000\000\000\000\000\000\000\000\000\000\000\000\000\002\000\000\000\001\000\000\000\000\000\000\000\002\000\000\000\001\000\000\000\002\000\000\000\000\000\000\000\001\000\000\000\002\000\000\000\001\000\000\000\001\000\000\000\000\000\000\000\000\000\000\000\002\000\000\000\001\000\000\000\000\000\000\000\000\000\000\000\000\000\000\000\002\000\000\000\000\000\000\000\002\000\000\000\000\000\000\000\000\000\000\000\001\000\000\000\000\000\000\000\000\000\000\000\001\000\000\000\002\000\000\000\002\000\000\000\000\000\000\000\000\000\000\000\001\000\000\000\000\000\000\000\001\000\000\000\002\000\000\000\000\000\000\000\001\000\000\000\001\000\000\000\002\000\000\000\001\000\000\000\002\000\000\000\001\000\000\000\000\000\000\000\001\000\000\000\002\000\000\000\000\000\000\000\001\000\000\000\001\000\000\000\000\000\000\000\002\000\000\000\002\000\000\000\002\000\000\000\002\000\000\000\000\000\000\000\001\000\000\000\000\000\000\000\000\000\000\000\002\000\000\000\001\000\000\000\002\000\000\000\001\000\000\000\001\000\000\000\001\000\000\000\000\000\000\000\001\000\000\000\000\000\000\000\001\000\000\000\001\000\000\000\000\000\000\000\002\000\000\000\000\000\000\000\001\000\000\000\001\000\000\000\000\000\000\000\000\000\000\000\001\000\000\000\001\000\000\000\001\000\000\000\000\000\000\000\002\000\000\000\002\000\000\000\001\000\000\000\002\000\000\000\000\000\000\000\001\000\000\000\001\000\000\000\000\000\000\000\002\000\000\000\002\000\000\000\002\000\000\000\001\000\000\000\000\000\000\000\000\000\000\000\001\000\000\000\002\000\000\000\002\000\000\000\000\000\000\000\000\000\000\000\002\000\000\000\000\000\000\000\000\000\000\000\002\000\000\000\000\000\000\000\002\000\000\000\000\000\000\000\002\000\000\000\001\000\000\000\000\000\000\000\000\000\000\000\002\000\000\000\000\000\000\000\002\000\000\000\001\000\000\000\000\000\000\000\002\000\000\000\002\000\000\000\002\000\000\000\000\000\000\000\001\000\000\000\001\000\000\000\000\000\000\000\000\000\000\000\001\000\000\000\001\000\000\000\001\000\000\000\002\000\000\000\000\000\000\000\000\000\000\000\002\000\000\000\001\000\000\000\002\000\000\000\000\000\000\000\000\000\000\000\001\000\000\000\000\000\000\000\001\000\000\000\000\000\000\000\000\000\000\000\000\000\000\000\001\000\000\000\000\000\000\000\000\000\000\000\002\000\000\000\002\000\000\000\002\000\000\000\002\000\000\000\000\000\000\000\002\000\000\000\000\000\000\000\000\000\000\000\000\000\000\000\001\000\000\000\000\000\000\000\000\000\000\000\000\000\000\000\001\000\000\000\000\000\000\000\000\000\000\000\001\000\000\000\002\000\000\000\000\000\000\000\002\000\000\000\001\000\000\000\000\000\000\000\002\000\000\000\000\000\000\000\002\000\000\000\002\000\000\000\002\000\000\000\000\000\000\000\000\000\000\000\002\000\000\000\001\000\000\000\002\000\000\000\002\000\000\000\000\000\000\000\002\000\000\000\001\000\000\000\002\000\000\000\002\000\000\000\000\000\000\000\000\000\000\000\000\000\000\000\002\000\000\000\000\000\000\000\002\000\000\000\002\000\000\000\001\000\000\000\002\000\000\000\001\000\000\000\002\000\000\000\000\000\000\000\001\000\000\000\001\000\000\000\000\000\000\000\002\000\000\000\002\000\000\000\002\000\000\000\002\000\000\000\000\000\000\000\000\000\000\000\000\000\000\000\001\000\000\000\001\000\000\000\002\000\000\000\002\000\000\000\002\000\000\000\001\000\000\000\000\000\000\000\001\000\000\000\001\000\000\000\002\000\000\000\000\000\000\000\001\000\000\000\002\000\000\000\001\000\000\000\002\000\000\000\000\000\000\000\001\000\000\000\000\000\000\000\000\000\000\000\000\000\000\000\002\000\000\000\002\000\000\000\002\000\000\000\002\000\000\000\001\000\000\000\001\000\000\000\000\000\000\000\001\000\000\000\001\000\000\000\000\000\000\000\001\000\000\000\000\000\000\000\002\000\000\000\002\000\000\000\001\000\000\000\002\000\000\000\002\000\000\000\000\000\000\000\002\000\000\000\001\000\000\000\001\000\000\000\000\000\000\000\000\000\000\000\001\000\000\000\002\000\000\000\002\000\000\000\001\000\000\000\000\000\000\000\002\000\000\000\000\000\000\000\001\000\000\000\002\000\000\000\002\000\000\000\000\000\000\000\000\000\000\000\001\000\000\000\002\000\000\000\002\000\000\000\001\000\000\000\001\000\000\000\000\000\000\000\001\000\000\000\000\000\000\000\001\000\000\000\000\000\000\000\002\000\000\000\000\000\000\000\000\000\000\000\002\000\000\000\001\000\000\000\001\000\000\000\000\000\000\000\000\000\000\000\001\000\000\000\002\000\000\000\000\000\000\000\001\000\000\000\001\000\000\000\000\000\000\000\002\000\000\000\000\000\000\000\002\000\000\000\001\000\000\000\000\000\000\000\002\000\000\000\001\000\000\000\000\000\000\000\002\000\000\000\002\000\000\000\000\000\000\000\001\000\000\000\001\000\000\000\002\000\000\000\002\000\000\000\001\000\000\000\001\000\000\000\001\000\000\000\000\000\000\000\000\000\000\000\001\000\000\000\001\000\000\000\001\000\000\000\000\000\000\000\001\000\000\000\002\000\000\000\002\000\000\000\002\000\000\000\002\000\000\000\001\000\000\000\001\000\000\000\002\000\000\000\001\000\000\000\002\000\000\000\001\000\000\000\002\000\000\000\002\000\000\000\000\000\000\000\002\000\000\000\000\000\000\000\002\000\000\000\000\000\000\000\001\000\000\000\002\000\000\000\000\000\000\000\000\000\000\000\000\000\000\000\002\000\000\000\000\000\000\000\002\000\000\000\001\000\000\000\000\000\000\000\002\000\000\000\000\000\000\000\002\000\000\000\000\000\000\000\000\000\000\000\000\000\000\000\002\000\000\000\001\000\000\000\002\000\000\000\000\000\000\000\002\000\000\000\002\000\000\000\002\000\000\000\000\000\000\000\001\000\000\000\002\000\000\000\001\000\000\000\002\000\000\000\002\000\000\000\002\000\000\000\000\000\000\000\001\000\000\000\001\000\000\000\000\000\000\000\000\000\000\000\002\000\000\000\002\000\000\000\001\000\000\000\000\000\000\000\000\000\000\000\001\000\000\000\000\000\000\000\002\000\000\000\000\000\000\000\000\000\000\000\001\000\000\000\000\000\000\000\002\000\000\000\002\000\000\000\000\000\000\000\000\000\000\000\001\000\000\000\000\000\000\000\002\000\000\000\000\000\000\000\001\000\000\000\000\000\000\000\002\000\000\000\001\000\000\000\002\000\000\000\001\000\000\000\002\000\000\000\002\000\000\000\002\000\000\000\002\000\000\000\000\000\000\000\001\000\000\000\000\000\000\000\001\000\000\000\002\000\000\000\002\000\000\000\002\000\000\000\002\000\000\000\001\000\000\000\002\000\000\000\001\000\000\000\000\000\000\000\000\000\000\000\002\000\000\000\002\000\000\000\002\000\000\000\001\000\000\000\002\000\000\000\001\000\000\000\001\000\000\000\002\000\000\000\002\000\000\000\001\000\000\000\000\000\000\000\001\000\000\000\001\000\000\000\000\000\000\000\000\000\000\000\000\000\000\000\000\000\000\000\000\000\000\000\001\000\000\000\001\000\000\000\000\000\000\000\002\000\000\000\000\000\000\000\002\000\000\000\001\000\000\000\002\000\000\000\002\000\000\000\001\000\000\000\001\000\000\000\002\000\000\000\000\000\000\000\000\000\000\000\002\000\000\000\002\000\000\000\000\000\000\000\000\000\000\000\002\000\000\000\002\000\000\000\002\000\000\000\001\000\000\000\001\000\000\000\001\000\000\000\001\000\000\000\001\000\000\000\001\000\000\000\000\000\000\000\000\000\000\000\000\000\000\000\000\000\000\000\001\000\000\000\001\000\000\000\002\000\000\000\000\000\000\000\002\000\000\000\000\000\000\000\000\000\000\000\002\000\000\000\000\000\000\000\000\000\000\000\002\000\000\000\002\000\000\000\002\000\000\000\001\000\000\000\000\000\000\000\000\000\000\000\002\000\000\000\001\000\000\000\001\000\000\000\001\000\000\000\000\000\000\000\001\000\000\000\000\000\000\000\001\000\000\000\000\000\000\000\001\000\000\000"
      }
    }
  }
}
node {
  name: "normalize_element/component_4"
  op: "Const"
  device: "/device:CPU:0"
  attr {
    key: "_output_shapes"
    value {
      list {
        shape {
          dim {
            size: 879
          }
        }
      }
    }
  }
  attr {
    key: "dtype"
    value {
      type: DT_INT32
    }
  }
  attr {
    key: "value"
    value {
      tensor {
        dtype: DT_INT32
        tensor_shape {
          dim {
            size: 879
          }
        }
        tensor_content: "\000\000\000\000\000\000\000\000\000\000\000\000\002\000\000\000\001\000\000\000\002\000\000\000\000\000\000\000\000\000\000\000\001\000\000\000\002\000\000\000\002\000\000\000\002\000\000\000\000\000\000\000\002\000\000\000\002\000\000\000\001\000\000\000\002\000\000\000\002\000\000\000\001\000\000\000\000\000\000\000\000\000\000\000\000\000\000\000\001\000\000\000\002\000\000\000\000\000\000\000\000\000\000\000\000\000\000\000\000\000\000\000\000\000\000\000\001\000\000\000\001\000\000\000\001\000\000\000\002\000\000\000\001\000\000\000\002\000\000\000\000\000\000\000\000\000\000\000\000\000\000\000\000\000\000\000\001\000\000\000\000\000\000\000\001\000\000\000\000\000\000\000\002\000\000\000\000\000\000\000\001\000\000\000\002\000\000\000\000\000\000\000\002\000\000\000\000\000\000\000\001\000\000\000\001\000\000\000\001\000\000\000\002\000\000\000\002\000\000\000\001\000\000\000\002\000\000\000\000\000\000\000\000\000\000\000\000\000\000\000\001\000\000\000\001\000\000\000\000\000\000\000\000\000\000\000\002\000\000\000\000\000\000\000\000\000\000\000\002\000\000\000\000\000\000\000\002\000\000\000\002\000\000\000\001\000\000\000\000\000\000\000\000\000\000\000\001\000\000\000\001\000\000\000\002\000\000\000\001\000\000\000\002\000\000\000\000\000\000\000\000\000\000\000\002\000\000\000\000\000\000\000\000\000\000\000\001\000\000\000\001\000\000\000\002\000\000\000\001\000\000\000\001\000\000\000\002\000\000\000\000\000\000\000\000\000\000\000\002\000\000\000\000\000\000\000\002\000\000\000\000\000\000\000\002\000\000\000\002\000\000\000\000\000\000\000\002\000\000\000\002\000\000\000\000\000\000\000\001\000\000\000\002\000\000\000\002\000\000\000\000\000\000\000\001\000\000\000\001\000\000\000\000\000\000\000\001\000\000\000\002\000\000\000\002\000\000\000\001\000\000\000\002\000\000\000\000\000\000\000\001\000\000\000\002\000\000\000\002\000\000\000\001\000\000\000\000\000\000\000\001\000\000\000\001\000\000\000\000\000\000\000\000\000\000\000\002\000\000\000\001\000\000\000\002\000\000\000\002\000\000\000\000\000\000\000\002\000\000\000\002\000\000\000\000\000\000\000\002\000\000\000\002\000\000\000\001\000\000\000\002\000\000\000\000\000\000\000\000\000\000\000\000\000\000\000\000\000\000\000\001\000\000\000\002\000\000\000\000\000\000\000\000\000\000\000\000\000\000\000\002\000\000\000\002\000\000\000\000\000\000\000\002\000\000\000\002\000\000\000\000\000\000\000\002\000\000\000\002\000\000\000\002\000\000\000\000\000\000\000\001\000\000\000\002\000\000\000\002\000\000\000\000\000\000\000\001\000\000\000\000\000\000\000\000\000\000\000\000\000\000\000\001\000\000\000\001\000\000\000\002\000\000\000\000\000\000\000\002\000\000\000\000\000\000\000\001\000\000\000\000\000\000\000\002\000\000\000\002\000\000\000\000\000\000\000\002\000\000\000\002\000\000\000\000\000\000\000\001\000\000\000\000\000\000\000\002\000\000\000\001\000\000\000\000\000\000\000\000\000\000\000\002\000\000\000\002\000\000\000\002\000\000\000\002\000\000\000\000\000\000\000\000\000\000\000\001\000\000\000\000\000\000\000\001\000\000\000\001\000\000\000\002\000\000\000\000\000\000\000\001\000\000\000\002\000\000\000\000\000\000\000\002\000\000\000\000\000\000\000\001\000\000\000\002\000\000\000\002\000\000\000\002\000\000\000\002\000\000\000\002\000\000\000\000\000\000\000\000\000\000\000\002\000\000\000\000\000\000\000\000\000\000\000\002\000\000\000\001\000\000\000\002\000\000\000\000\000\000\000\002\000\000\000\001\000\000\000\002\000\000\000\002\000\000\000\000\000\000\000\002\000\000\000\001\000\000\000\000\000\000\000\000\000\000\000\002\000\000\000\001\000\000\000\000\000\000\000\000\000\000\000\000\000\000\000\002\000\000\000\001\000\000\000\000\000\000\000\000\000\000\000\000\000\000\000\000\000\000\000\000\000\000\000\002\000\000\000\000\000\000\000\002\000\000\000\002\000\000\000\000\000\000\000\002\000\000\000\000\000\000\000\000\000\000\000\000\000\000\000\002\000\000\000\001\000\000\000\000\000\000\000\002\000\000\000\001\000\000\000\002\000\000\000\002\000\000\000\001\000\000\000\001\000\000\000\001\000\000\000\001\000\000\000\000\000\000\000\002\000\000\000\002\000\000\000\001\000\000\000\002\000\000\000\002\000\000\000\002\000\000\000\001\000\000\000\000\000\000\000\002\000\000\000\002\000\000\000\001\000\000\000\000\000\000\000\002\000\000\000\002\000\000\000\002\000\000\000\001\000\000\000\001\000\000\000\002\000\000\000\002\000\000\000\002\000\000\000\002\000\000\000\000\000\000\000\001\000\000\000\000\000\000\000\002\000\000\000\000\000\000\000\000\000\000\000\002\000\000\000\002\000\000\000\001\000\000\000\000\000\000\000\000\000\000\000\002\000\000\000\000\000\000\000\000\000\000\000\001\000\000\000\002\000\000\000\000\000\000\000\000\000\000\000\002\000\000\000\002\000\000\000\002\000\000\000\001\000\000\000\000\000\000\000\001\000\000\000\002\000\000\000\000\000\000\000\002\000\000\000\000\000\000\000\001\000\000\000\002\000\000\000\002\000\000\000\001\000\000\000\000\000\000\000\000\000\000\000\002\000\000\000\002\000\000\000\001\000\000\000\002\000\000\000\000\000\000\000\002\000\000\000\000\000\000\000\000\000\000\000\000\000\000\000\000\000\000\000\002\000\000\000\001\000\000\000\000\000\000\000\002\000\000\000\002\000\000\000\000\000\000\000\000\000\000\000\000\000\000\000\001\000\000\000\000\000\000\000\002\000\000\000\002\000\000\000\002\000\000\000\002\000\000\000\000\000\000\000\002\000\000\000\000\000\000\000\000\000\000\000\002\000\000\000\001\000\000\000\001\000\000\000\002\000\000\000\002\000\000\000\002\000\000\000\002\000\000\000\001\000\000\000\002\000\000\000\000\000\000\000\002\000\000\000\000\000\000\000\002\000\000\000\001\000\000\000\002\000\000\000\002\000\000\000\002\000\000\000\001\000\000\000\001\000\000\000\002\000\000\000\000\000\000\000\000\000\000\000\002\000\000\000\001\000\000\000\000\000\000\000\000\000\000\000\001\000\000\000\002\000\000\000\000\000\000\000\002\000\000\000\001\000\000\000\001\000\000\000\001\000\000\000\001\000\000\000\001\000\000\000\002\000\000\000\000\000\000\000\002\000\000\000\000\000\000\000\000\000\000\000\001\000\000\000\002\000\000\000\002\000\000\000\001\000\000\000\000\000\000\000\000\000\000\000\001\000\000\000\001\000\000\000\000\000\000\000\000\000\000\000\000\000\000\000\000\000\000\000\002\000\000\000\002\000\000\000\000\000\000\000\000\000\000\000\001\000\000\000\002\000\000\000\000\000\000\000\000\000\000\000\001\000\000\000\001\000\000\000\000\000\000\000\002\000\000\000\000\000\000\000\000\000\000\000\001\000\000\000\001\000\000\000\002\000\000\000\000\000\000\000\001\000\000\000\000\000\000\000\002\000\000\000\000\000\000\000\000\000\000\000\000\000\000\000\002\000\000\000\002\000\000\000\001\000\000\000\001\000\000\000\000\000\000\000\002\000\000\000\000\000\000\000\001\000\000\000\000\000\000\000\001\000\000\000\000\000\000\000\000\000\000\000\000\000\000\000\000\000\000\000\002\000\000\000\001\000\000\000\001\000\000\000\001\000\000\000\000\000\000\000\001\000\000\000\000\000\000\000\002\000\000\000\001\000\000\000\002\000\000\000\000\000\000\000\002\000\000\000\000\000\000\000\002\000\000\000\002\000\000\000\000\000\000\000\002\000\000\000\002\000\000\000\000\000\000\000\002\000\000\000\000\000\000\000\001\000\000\000\002\000\000\000\001\000\000\000\001\000\000\000\002\000\000\000\000\000\000\000\002\000\000\000\001\000\000\000\000\000\000\000\002\000\000\000\002\000\000\000\002\000\000\000\002\000\000\000\002\000\000\000\002\000\000\000\001\000\000\000\000\000\000\000\001\000\000\000\000\000\000\000\000\000\000\000\000\000\000\000\002\000\000\000\001\000\000\000\000\000\000\000\000\000\000\000\001\000\000\000\000\000\000\000\000\000\000\000\002\000\000\000\002\000\000\000\000\000\000\000\002\000\000\000\002\000\000\000\000\000\000\000\001\000\000\000\000\000\000\000\002\000\000\000\001\000\000\000\001\000\000\000\002\000\000\000\002\000\000\000\000\000\000\000\000\000\000\000\001\000\000\000\000\000\000\000\002\000\000\000\002\000\000\000\001\000\000\000\000\000\000\000\001\000\000\000\001\000\000\000\000\000\000\000\001\000\000\000\000\000\000\000\000\000\000\000\002\000\000\000\001\000\000\000\002\000\000\000\002\000\000\000\001\000\000\000\000\000\000\000\002\000\000\000\001\000\000\000\002\000\000\000\002\000\000\000\001\000\000\000\001\000\000\000\000\000\000\000\002\000\000\000\000\000\000\000\000\000\000\000\002\000\000\000\000\000\000\000\000\000\000\000\002\000\000\000\000\000\000\000\002\000\000\000\001\000\000\000\001\000\000\000\000\000\000\000\002\000\000\000\002\000\000\000\002\000\000\000\001\000\000\000\000\000\000\000\002\000\000\000\000\000\000\000\000\000\000\000\000\000\000\000\000\000\000\000\000\000\000\000\000\000\000\000\001\000\000\000\001\000\000\000\001\000\000\000\002\000\000\000\002\000\000\000\002\000\000\000\000\000\000\000\000\000\000\000\001\000\000\000\001\000\000\000\001\000\000\000\001\000\000\000\001\000\000\000\001\000\000\000\000\000\000\000\002\000\000\000\001\000\000\000\001\000\000\000\002\000\000\000\001\000\000\000\002\000\000\000\001\000\000\000\000\000\000\000\000\000\000\000\002\000\000\000\000\000\000\000\002\000\000\000\000\000\000\000\002\000\000\000\001\000\000\000\001\000\000\000\001\000\000\000\002\000\000\000\000\000\000\000\002\000\000\000\000\000\000\000\002\000\000\000\000\000\000\000\001\000\000\000\001\000\000\000\001\000\000\000\001\000\000\000\001\000\000\000\000\000\000\000\001\000\000\000\002\000\000\000\001\000\000\000\002\000\000\000\002\000\000\000\000\000\000\000\002\000\000\000\001\000\000\000\000\000\000\000\002\000\000\000\002\000\000\000\002\000\000\000\002\000\000\000\001\000\000\000\000\000\000\000\001\000\000\000\001\000\000\000\000\000\000\000\000\000\000\000\000\000\000\000\002\000\000\000\002\000\000\000\002\000\000\000\002\000\000\000\000\000\000\000\000\000\000\000\000\000\000\000\002\000\000\000\000\000\000\000\000\000\000\000\000\000\000\000\002\000\000\000\002\000\000\000\000\000\000\000\002\000\000\000\001\000\000\000\000\000\000\000\000\000\000\000\002\000\000\000\002\000\000\000\000\000\000\000\002\000\000\000\000\000\000\000\002\000\000\000\000\000\000\000\000\000\000\000\000\000\000\000\001\000\000\000\002\000\000\000\001\000\000\000\000\000\000\000\002\000\000\000\000\000\000\000\002\000\000\000\002\000\000\000\000\000\000\000\002\000\000\000\001\000\000\000\000\000\000\000\001\000\000\000\001\000\000\000\000\000\000\000\001\000\000\000\002\000\000\000\000\000\000\000\000\000\000\000\002\000\000\000\000\000\000\000\000\000\000\000\001\000\000\000\001\000\000\000\001\000\000\000\000\000\000\000\000\000\000\000\002\000\000\000\002\000\000\000\000\000\000\000\001\000\000\000\001\000\000\000\000\000\000\000\000\000\000\000\000\000\000\000\000\000\000\000\001\000\000\000\000\000\000\000\001\000\000\000\000\000\000\000\000\000\000\000\000\000\000\000\001\000\000\000\001\000\000\000\000\000\000\000\002\000\000\000\000\000\000\000\000\000\000\000\002\000\000\000\000\000\000\000\002\000\000\000\000\000\000\000\000\000\000\000\000\000\000\000\001\000\000\000\000\000\000\000\000\000\000\000\000\000\000\000\000\000\000\000\002\000\000\000\001\000\000\000\002\000\000\000\000\000\000\000\000\000\000\000\002\000\000\000\000\000\000\000\000\000\000\000\000\000\000\000\001\000\000\000\000\000\000\000\002\000\000\000\000\000\000\000\002\000\000\000\000\000\000\000\002\000\000\000\000\000\000\000\000\000\000\000\001\000\000\000\002\000\000\000\000\000\000\000\001\000\000\000\002\000\000\000\000\000\000\000\001\000\000\000\002\000\000\000\000\000\000\000\001\000\000\000\000\000\000\000\002\000\000\000\001\000\000\000\002\000\000\000\000\000\000\000\000\000\000\000\000\000\000\000\000\000\000\000\001\000\000\000\000\000\000\000\002\000\000\000\001\000\000\000\000\000\000\000\000\000\000\000\001\000\000\000\000\000\000\000\001\000\000\000\002\000\000\000\000\000\000\000\001\000\000\000\000\000\000\000\002\000\000\000\000\000\000\000\002\000\000\000\001\000\000\000\002\000\000\000\002\000\000\000\002\000\000\000\000\000\000\000\000\000\000\000\001\000\000\000\000\000\000\000\002\000\000\000\000\000\000\000\002\000\000\000\000\000\000\000\002\000\000\000\000\000\000\000\000\000\000\000\001\000\000\000\002\000\000\000\002\000\000\000\000\000\000\000\001\000\000\000\001\000\000\000\000\000\000\000\000\000\000\000\001\000\000\000\001\000\000\000\001\000\000\000\000\000\000\000\000\000\000\000\002\000\000\000\000\000\000\000\001\000\000\000\000\000\000\000\002\000\000\000\000\000\000\000\002\000\000\000\000\000\000\000\000\000\000\000\001\000\000\000\000\000\000\000\000\000\000\000\002\000\000\000\000\000\000\000\000\000\000\000\002\000\000\000\002\000\000\000\002\000\000\000\001\000\000\000\002\000\000\000\001\000\000\000\000\000\000\000\002\000\000\000\002\000\000\000\001\000\000\000\002\000\000\000\000\000\000\000\002\000\000\000\002\000\000\000\001\000\000\000\001\000\000\000\002\000\000\000\002\000\000\000\002\000\000\000\000\000\000\000\000\000\000\000\002\000\000\000\000\000\000\000\002\000\000\000\002\000\000\000\002\000\000\000\001\000\000\000\002\000\000\000\000\000\000\000\000\000\000\000\000\000\000\000\000\000\000\000\000\000\000\000\000\000\000\000\002\000\000\000\000\000\000\000\002\000\000\000\002\000\000\000\001\000\000\000\001\000\000\000\002\000\000\000\001\000\000\000\002\000\000\000\002\000\000\000\000\000\000\000\000\000\000\000\001\000\000\000\001\000\000\000\000\000\000\000\002\000\000\000\001\000\000\000\001\000\000\000\002\000\000\000\002\000\000\000\000\000\000\000\001\000\000\000\002\000\000\000\002\000\000\000\000\000\000\000\000\000\000\000\000\000\000\000\000\000\000\000\000\000\000\000\000\000\000\000\001\000\000\000\002\000\000\000\002\000\000\000\002\000\000\000\000\000\000\000\002\000\000\000\000\000\000\000\000\000\000\000\002\000\000\000\001\000\000\000\000\000\000\000\002\000\000\000\002\000\000\000\001\000\000\000\000\000\000\000\000\000\000\000\000\000\000\000\002\000\000\000\002\000\000\000\000\000\000\000\002\000\000\000\000\000\000\000\000\000\000\000\000\000\000\000\001\000\000\000\001\000\000\000\000\000\000\000"
      }
    }
  }
}
node {
  name: "normalize_element/component_5"
  op: "Const"
  device: "/device:CPU:0"
  attr {
    key: "_output_shapes"
    value {
      list {
        shape {
          dim {
            size: 879
          }
        }
      }
    }
  }
  attr {
    key: "dtype"
    value {
      type: DT_INT32
    }
  }
  attr {
    key: "value"
    value {
      tensor {
        dtype: DT_INT32
        tensor_shape {
          dim {
            size: 879
          }
        }
        tensor_content: "\001\000\000\000\001\000\000\000\001\000\000\000\001\000\000\000\000\000\000\000\001\000\000\000\000\000\000\000\001\000\000\000\000\000\000\000\001\000\000\000\001\000\000\000\000\000\000\000\000\000\000\000\000\000\000\000\001\000\000\000\000\000\000\000\001\000\000\000\001\000\000\000\001\000\000\000\000\000\000\000\001\000\000\000\000\000\000\000\000\000\000\000\000\000\000\000\000\000\000\000\001\000\000\000\000\000\000\000\000\000\000\000\001\000\000\000\000\000\000\000\001\000\000\000\000\000\000\000\000\000\000\000\001\000\000\000\001\000\000\000\001\000\000\000\000\000\000\000\000\000\000\000\001\000\000\000\000\000\000\000\000\000\000\000\000\000\000\000\001\000\000\000\000\000\000\000\000\000\000\000\000\000\000\000\000\000\000\000\000\000\000\000\001\000\000\000\000\000\000\000\000\000\000\000\001\000\000\000\000\000\000\000\001\000\000\000\000\000\000\000\000\000\000\000\000\000\000\000\001\000\000\000\000\000\000\000\000\000\000\000\000\000\000\000\000\000\000\000\000\000\000\000\000\000\000\000\001\000\000\000\000\000\000\000\000\000\000\000\000\000\000\000\000\000\000\000\000\000\000\000\000\000\000\000\001\000\000\000\000\000\000\000\001\000\000\000\001\000\000\000\000\000\000\000\000\000\000\000\000\000\000\000\000\000\000\000\000\000\000\000\001\000\000\000\001\000\000\000\001\000\000\000\001\000\000\000\000\000\000\000\000\000\000\000\001\000\000\000\001\000\000\000\000\000\000\000\000\000\000\000\000\000\000\000\000\000\000\000\001\000\000\000\000\000\000\000\000\000\000\000\001\000\000\000\001\000\000\000\000\000\000\000\001\000\000\000\001\000\000\000\000\000\000\000\000\000\000\000\000\000\000\000\000\000\000\000\001\000\000\000\001\000\000\000\000\000\000\000\001\000\000\000\000\000\000\000\000\000\000\000\000\000\000\000\001\000\000\000\000\000\000\000\001\000\000\000\001\000\000\000\001\000\000\000\001\000\000\000\001\000\000\000\000\000\000\000\000\000\000\000\001\000\000\000\001\000\000\000\000\000\000\000\001\000\000\000\001\000\000\000\000\000\000\000\000\000\000\000\000\000\000\000\000\000\000\000\000\000\000\000\000\000\000\000\001\000\000\000\000\000\000\000\001\000\000\000\001\000\000\000\001\000\000\000\001\000\000\000\000\000\000\000\000\000\000\000\000\000\000\000\001\000\000\000\000\000\000\000\000\000\000\000\000\000\000\000\000\000\000\000\000\000\000\000\000\000\000\000\000\000\000\000\001\000\000\000\000\000\000\000\000\000\000\000\000\000\000\000\001\000\000\000\001\000\000\000\000\000\000\000\001\000\000\000\001\000\000\000\000\000\000\000\001\000\000\000\000\000\000\000\000\000\000\000\000\000\000\000\000\000\000\000\000\000\000\000\000\000\000\000\000\000\000\000\001\000\000\000\001\000\000\000\001\000\000\000\000\000\000\000\001\000\000\000\001\000\000\000\000\000\000\000\001\000\000\000\000\000\000\000\000\000\000\000\000\000\000\000\000\000\000\000\000\000\000\000\001\000\000\000\001\000\000\000\000\000\000\000\000\000\000\000\001\000\000\000\001\000\000\000\001\000\000\000\001\000\000\000\000\000\000\000\001\000\000\000\001\000\000\000\000\000\000\000\000\000\000\000\000\000\000\000\001\000\000\000\000\000\000\000\000\000\000\000\001\000\000\000\000\000\000\000\000\000\000\000\000\000\000\000\001\000\000\000\000\000\000\000\000\000\000\000\001\000\000\000\001\000\000\000\000\000\000\000\000\000\000\000\000\000\000\000\001\000\000\000\000\000\000\000\000\000\000\000\000\000\000\000\000\000\000\000\001\000\000\000\000\000\000\000\000\000\000\000\000\000\000\000\001\000\000\000\000\000\000\000\000\000\000\000\001\000\000\000\000\000\000\000\000\000\000\000\000\000\000\000\000\000\000\000\001\000\000\000\001\000\000\000\000\000\000\000\001\000\000\000\001\000\000\000\000\000\000\000\001\000\000\000\000\000\000\000\000\000\000\000\000\000\000\000\001\000\000\000\000\000\000\000\000\000\000\000\000\000\000\000\000\000\000\000\000\000\000\000\000\000\000\000\000\000\000\000\000\000\000\000\000\000\000\000\001\000\000\000\001\000\000\000\001\000\000\000\001\000\000\000\001\000\000\000\000\000\000\000\001\000\000\000\000\000\000\000\000\000\000\000\000\000\000\000\000\000\000\000\001\000\000\000\000\000\000\000\001\000\000\000\000\000\000\000\001\000\000\000\001\000\000\000\000\000\000\000\000\000\000\000\000\000\000\000\000\000\000\000\000\000\000\000\001\000\000\000\000\000\000\000\000\000\000\000\001\000\000\000\001\000\000\000\001\000\000\000\000\000\000\000\001\000\000\000\000\000\000\000\000\000\000\000\000\000\000\000\000\000\000\000\001\000\000\000\001\000\000\000\001\000\000\000\001\000\000\000\000\000\000\000\001\000\000\000\001\000\000\000\000\000\000\000\001\000\000\000\000\000\000\000\000\000\000\000\000\000\000\000\000\000\000\000\000\000\000\000\001\000\000\000\001\000\000\000\000\000\000\000\001\000\000\000\000\000\000\000\000\000\000\000\001\000\000\000\001\000\000\000\000\000\000\000\000\000\000\000\000\000\000\000\001\000\000\000\000\000\000\000\000\000\000\000\001\000\000\000\000\000\000\000\000\000\000\000\000\000\000\000\001\000\000\000\001\000\000\000\000\000\000\000\001\000\000\000\000\000\000\000\000\000\000\000\001\000\000\000\001\000\000\000\001\000\000\000\000\000\000\000\001\000\000\000\000\000\000\000\001\000\000\000\000\000\000\000\001\000\000\000\000\000\000\000\001\000\000\000\000\000\000\000\000\000\000\000\000\000\000\000\001\000\000\000\001\000\000\000\000\000\000\000\001\000\000\000\000\000\000\000\000\000\000\000\000\000\000\000\000\000\000\000\001\000\000\000\001\000\000\000\000\000\000\000\001\000\000\000\001\000\000\000\000\000\000\000\001\000\000\000\000\000\000\000\001\000\000\000\000\000\000\000\000\000\000\000\001\000\000\000\001\000\000\000\000\000\000\000\000\000\000\000\001\000\000\000\001\000\000\000\000\000\000\000\000\000\000\000\001\000\000\000\001\000\000\000\000\000\000\000\000\000\000\000\000\000\000\000\001\000\000\000\000\000\000\000\000\000\000\000\000\000\000\000\000\000\000\000\001\000\000\000\000\000\000\000\000\000\000\000\001\000\000\000\000\000\000\000\001\000\000\000\000\000\000\000\001\000\000\000\000\000\000\000\000\000\000\000\000\000\000\000\001\000\000\000\000\000\000\000\000\000\000\000\001\000\000\000\000\000\000\000\000\000\000\000\000\000\000\000\000\000\000\000\000\000\000\000\000\000\000\000\000\000\000\000\000\000\000\000\001\000\000\000\001\000\000\000\001\000\000\000\001\000\000\000\001\000\000\000\001\000\000\000\000\000\000\000\000\000\000\000\000\000\000\000\000\000\000\000\000\000\000\000\000\000\000\000\001\000\000\000\000\000\000\000\000\000\000\000\000\000\000\000\001\000\000\000\000\000\000\000\000\000\000\000\001\000\000\000\000\000\000\000\001\000\000\000\001\000\000\000\001\000\000\000\000\000\000\000\001\000\000\000\000\000\000\000\000\000\000\000\001\000\000\000\001\000\000\000\001\000\000\000\001\000\000\000\000\000\000\000\001\000\000\000\000\000\000\000\000\000\000\000\000\000\000\000\001\000\000\000\000\000\000\000\001\000\000\000\000\000\000\000\001\000\000\000\000\000\000\000\001\000\000\000\001\000\000\000\001\000\000\000\000\000\000\000\000\000\000\000\001\000\000\000\000\000\000\000\001\000\000\000\000\000\000\000\001\000\000\000\001\000\000\000\000\000\000\000\000\000\000\000\001\000\000\000\000\000\000\000\000\000\000\000\000\000\000\000\000\000\000\000\001\000\000\000\001\000\000\000\000\000\000\000\000\000\000\000\000\000\000\000\000\000\000\000\000\000\000\000\001\000\000\000\000\000\000\000\001\000\000\000\001\000\000\000\001\000\000\000\000\000\000\000\000\000\000\000\001\000\000\000\000\000\000\000\001\000\000\000\000\000\000\000\001\000\000\000\000\000\000\000\001\000\000\000\001\000\000\000\001\000\000\000\001\000\000\000\001\000\000\000\000\000\000\000\000\000\000\000\001\000\000\000\000\000\000\000\001\000\000\000\000\000\000\000\001\000\000\000\000\000\000\000\000\000\000\000\000\000\000\000\000\000\000\000\000\000\000\000\001\000\000\000\001\000\000\000\000\000\000\000\001\000\000\000\000\000\000\000\001\000\000\000\000\000\000\000\000\000\000\000\001\000\000\000\001\000\000\000\000\000\000\000\000\000\000\000\000\000\000\000\000\000\000\000\000\000\000\000\001\000\000\000\000\000\000\000\000\000\000\000\001\000\000\000\001\000\000\000\000\000\000\000\000\000\000\000\001\000\000\000\001\000\000\000\000\000\000\000\000\000\000\000\000\000\000\000\000\000\000\000\001\000\000\000\001\000\000\000\000\000\000\000\000\000\000\000\000\000\000\000\000\000\000\000\000\000\000\000\000\000\000\000\000\000\000\000\001\000\000\000\001\000\000\000\000\000\000\000\001\000\000\000\001\000\000\000\000\000\000\000\000\000\000\000\000\000\000\000\000\000\000\000\001\000\000\000\001\000\000\000\001\000\000\000\001\000\000\000\000\000\000\000\000\000\000\000\001\000\000\000\001\000\000\000\000\000\000\000\000\000\000\000\000\000\000\000\000\000\000\000\001\000\000\000\001\000\000\000\000\000\000\000\000\000\000\000\000\000\000\000\000\000\000\000\000\000\000\000\000\000\000\000\000\000\000\000\000\000\000\000\001\000\000\000\001\000\000\000\000\000\000\000\001\000\000\000\001\000\000\000\000\000\000\000\001\000\000\000\001\000\000\000\000\000\000\000\000\000\000\000\001\000\000\000\000\000\000\000\001\000\000\000\000\000\000\000\001\000\000\000\000\000\000\000\001\000\000\000\001\000\000\000\000\000\000\000\000\000\000\000\001\000\000\000\001\000\000\000\001\000\000\000\000\000\000\000\000\000\000\000\001\000\000\000\000\000\000\000\000\000\000\000\000\000\000\000\000\000\000\000\000\000\000\000\000\000\000\000\000\000\000\000\001\000\000\000\000\000\000\000\000\000\000\000\000\000\000\000\000\000\000\000\000\000\000\000\000\000\000\000\001\000\000\000\001\000\000\000\000\000\000\000\001\000\000\000\001\000\000\000\001\000\000\000\001\000\000\000\000\000\000\000\000\000\000\000\000\000\000\000\000\000\000\000\001\000\000\000\001\000\000\000\001\000\000\000\000\000\000\000\001\000\000\000\000\000\000\000\001\000\000\000\000\000\000\000\001\000\000\000\001\000\000\000\000\000\000\000\001\000\000\000\000\000\000\000\001\000\000\000\001\000\000\000\000\000\000\000\001\000\000\000\001\000\000\000\000\000\000\000\000\000\000\000\001\000\000\000\001\000\000\000\001\000\000\000\001\000\000\000\001\000\000\000\000\000\000\000\000\000\000\000\000\000\000\000\000\000\000\000\001\000\000\000\001\000\000\000\000\000\000\000\000\000\000\000\001\000\000\000\000\000\000\000\000\000\000\000\000\000\000\000\001\000\000\000\000\000\000\000\000\000\000\000\000\000\000\000\000\000\000\000\000\000\000\000\000\000\000\000\001\000\000\000\000\000\000\000\000\000\000\000\000\000\000\000\001\000\000\000\000\000\000\000\000\000\000\000\000\000\000\000\000\000\000\000\000\000\000\000\001\000\000\000\000\000\000\000\000\000\000\000\000\000\000\000\001\000\000\000\000\000\000\000\000\000\000\000\000\000\000\000\001\000\000\000\000\000\000\000\001\000\000\000\000\000\000\000\000\000\000\000\000\000\000\000\000\000\000\000\000\000\000\000\000\000\000\000\001\000\000\000\000\000\000\000\000\000\000\000\001\000\000\000\001\000\000\000\000\000\000\000\000\000\000\000\000\000\000\000\000\000\000\000\001\000\000\000\000\000\000\000\000\000\000\000\001\000\000\000\001\000\000\000\001\000\000\000\001\000\000\000\001\000\000\000\000\000\000\000\000\000\000\000\001\000\000\000\000\000\000\000\001\000\000\000\001\000\000\000\000\000\000\000\001\000\000\000\001\000\000\000\000\000\000\000\000\000\000\000\000\000\000\000\001\000\000\000\000\000\000\000\000\000\000\000\001\000\000\000\000\000\000\000\000\000\000\000\000\000\000\000\000\000\000\000\000\000\000\000\000\000\000\000\000\000\000\000\000\000\000\000\000\000\000\000\001\000\000\000\001\000\000\000\000\000\000\000\000\000\000\000\000\000\000\000\000\000\000\000\000\000\000\000\001\000\000\000\000\000\000\000\001\000\000\000\001\000\000\000\000\000\000\000\000\000\000\000\000\000\000\000\000\000\000\000\001\000\000\000\000\000\000\000\001\000\000\000\000\000\000\000\000\000\000\000\000\000\000\000\001\000\000\000\000\000\000\000\001\000\000\000\000\000\000\000\000\000\000\000\001\000\000\000\000\000\000\000\000\000\000\000\000\000\000\000\001\000\000\000\000\000\000\000\001\000\000\000\000\000\000\000\001\000\000\000\001\000\000\000\000\000\000\000\000\000\000\000\000\000\000\000\000\000\000\000\000\000\000\000\000\000\000\000\000\000\000\000\000\000\000\000\000\000\000\000\000\000\000\000\001\000\000\000\000\000\000\000\001\000\000\000\000\000\000\000\000\000\000\000\001\000\000\000\001\000\000\000\000\000\000\000\000\000\000\000\000\000\000\000\000\000\000\000\001\000\000\000\001\000\000\000\000\000\000\000\000\000\000\000\000\000\000\000\000\000\000\000\001\000\000\000\000\000\000\000\000\000\000\000\001\000\000\000\001\000\000\000\001\000\000\000\001\000\000\000\000\000\000\000\000\000\000\000\000\000\000\000\000\000\000\000\000\000\000\000\000\000\000\000\000\000\000\000\000\000\000\000\000\000\000\000\000\000\000\000\000\000\000\000\001\000\000\000\001\000\000\000\001\000\000\000\000\000\000\000\000\000\000\000\001\000\000\000\000\000\000\000\000\000\000\000\001\000\000\000\000\000\000\000\000\000\000\000\000\000\000\000\000\000\000\000\000\000\000\000\001\000\000\000\000\000\000\000\000\000\000\000\001\000\000\000\000\000\000\000\001\000\000\000\000\000\000\000\000\000\000\000\000\000\000\000\000\000\000\000\000\000\000\000\000\000\000\000\000\000\000\000\001\000\000\000\001\000\000\000\000\000\000\000\001\000\000\000\000\000\000\000\000\000\000\000\001\000\000\000\000\000\000\000\000\000\000\000\000\000\000\000\001\000\000\000\000\000\000\000\001\000\000\000\001\000\000\000\001\000\000\000\001\000\000\000\000\000\000\000\001\000\000\000\000\000\000\000\000\000\000\000\000\000\000\000\000\000\000\000\000\000\000\000\000\000\000\000\000\000\000\000\000\000\000\000\000\000\000\000\001\000\000\000\000\000\000\000\000\000\000\000\000\000\000\000\000\000\000\000\000\000\000\000\001\000\000\000\000\000\000\000\001\000\000\000\001\000\000\000\000\000\000\000\000\000\000\000\001\000\000\000\001\000\000\000\000\000\000\000\001\000\000\000\000\000\000\000\000\000\000\000\001\000\000\000\001\000\000\000\000\000\000\000\000\000\000\000\000\000\000\000"
      }
    }
  }
}
node {
  name: "normalize_element/component_6"
  op: "Const"
  device: "/device:CPU:0"
  attr {
    key: "_output_shapes"
    value {
      list {
        shape {
          dim {
            size: 879
          }
        }
      }
    }
  }
  attr {
    key: "dtype"
    value {
      type: DT_INT32
    }
  }
  attr {
    key: "value"
    value {
      tensor {
        dtype: DT_INT32
        tensor_shape {
          dim {
            size: 879
          }
        }
